{
  "version": "1.0",
  "truncation": null,
  "padding": null,
  "added_tokens": [
    {
      "id": 0,
      "content": "<pad>",
      "single_word": false,
      "lstrip": false,
      "rstrip": false,
      "normalized": false,
      "special": true
    },
    {
      "id": 1,
      "content": "<unk>",
      "single_word": false,
      "lstrip": false,
      "rstrip": false,
      "normalized": false,
      "special": true
    },
    {
      "id": 2,
      "content": "<bos>",
      "single_word": false,
      "lstrip": false,
      "rstrip": false,
      "normalized": false,
      "special": true
    },
    {
      "id": 3,
      "content": "<eos>",
      "single_word": false,
      "lstrip": false,
      "rstrip": false,
      "normalized": false,
      "special": true
    },
    {
      "id": 4,
      "content": "<user>",
      "single_word": false,
      "lstrip": false,
      "rstrip": false,
      "normalized": false,
      "special": true
    },
    {
      "id": 5,
      "content": "<assistant>",
      "single_word": false,
      "lstrip": false,
      "rstrip": false,
      "normalized": false,
      "special": true
    },
    {
      "id": 6,
      "content": "<system>",
      "single_word": false,
      "lstrip": false,
      "rstrip": false,
      "normalized": false,
      "special": true
    }
  ],
  "normalizer": {
    "type": "Sequence",
    "normalizers": [
      {
        "type": "NFKC"
      }
    ]
  },
  "pre_tokenizer": {
    "type": "ByteLevel",
    "add_prefix_space": false,
    "trim_offsets": true,
    "use_regex": true
  },
  "post_processor": null,
  "decoder": {
    "type": "ByteLevel",
    "add_prefix_space": true,
    "trim_offsets": true,
    "use_regex": true
  },
  "model": {
    "type": "BPE",
    "dropout": null,
    "unk_token": "<unk>",
    "continuing_subword_prefix": null,
    "end_of_word_suffix": null,
    "fuse_unk": false,
    "byte_fallback": false,
    "ignore_merges": false,
    "vocab": {
      "<pad>": 0,
      "<unk>": 1,
      "<bos>": 2,
      "<eos>": 3,
      "<user>": 4,
      "<assistant>": 5,
      "<system>": 6,
      "!": 7,
      "\"": 8,
      "#": 9,
      "$": 10,
      "%": 11,
      "&": 12,
      "'": 13,
      "(": 14,
      ")": 15,
      "*": 16,
      "+": 17,
      ",": 18,
      "-": 19,
      ".": 20,
      "/": 21,
      "0": 22,
      "1": 23,
      "2": 24,
      "3": 25,
      "4": 26,
      "5": 27,
      "6": 28,
      "7": 29,
      "8": 30,
      "9": 31,
      ":": 32,
      ";": 33,
      "<": 34,
      "=": 35,
      ">": 36,
      "?": 37,
      "@": 38,
      "A": 39,
      "B": 40,
      "C": 41,
      "D": 42,
      "E": 43,
      "F": 44,
      "G": 45,
      "H": 46,
      "I": 47,
      "J": 48,
      "K": 49,
      "L": 50,
      "M": 51,
      "N": 52,
      "O": 53,
      "P": 54,
      "Q": 55,
      "R": 56,
      "S": 57,
      "T": 58,
      "U": 59,
      "V": 60,
      "W": 61,
      "X": 62,
      "Y": 63,
      "Z": 64,
      "[": 65,
      "\\": 66,
      "]": 67,
      "^": 68,
      "_": 69,
      "`": 70,
      "a": 71,
      "b": 72,
      "c": 73,
      "d": 74,
      "e": 75,
      "f": 76,
      "g": 77,
      "h": 78,
      "i": 79,
      "j": 80,
      "k": 81,
      "l": 82,
      "m": 83,
      "n": 84,
      "o": 85,
      "p": 86,
      "q": 87,
      "r": 88,
      "s": 89,
      "t": 90,
      "u": 91,
      "v": 92,
      "w": 93,
      "x": 94,
      "y": 95,
      "z": 96,
      "{": 97,
      "|": 98,
      "}": 99,
      "~": 100,
      "¡": 101,
      "¢": 102,
      "£": 103,
      "¤": 104,
      "¥": 105,
      "¦": 106,
      "§": 107,
      "¨": 108,
      "©": 109,
      "ª": 110,
      "«": 111,
      "¬": 112,
      "®": 113,
      "¯": 114,
      "°": 115,
      "±": 116,
      "²": 117,
      "³": 118,
      "´": 119,
      "µ": 120,
      "¶": 121,
      "·": 122,
      "¸": 123,
      "¹": 124,
      "º": 125,
      "»": 126,
      "¼": 127,
      "½": 128,
      "¾": 129,
      "¿": 130,
      "Â": 131,
      "Ã": 132,
      "Ä": 133,
      "Å": 134,
      "Æ": 135,
      "Ç": 136,
      "È": 137,
      "É": 138,
      "Ê": 139,
      "Ë": 140,
      "Ì": 141,
      "Í": 142,
      "Î": 143,
      "Ï": 144,
      "Ð": 145,
      "Ñ": 146,
      "Ò": 147,
      "Ó": 148,
      "Ô": 149,
      "Õ": 150,
      "Ö": 151,
      "×": 152,
      "Ø": 153,
      "Ù": 154,
      "Ú": 155,
      "Û": 156,
      "Ü": 157,
      "Ý": 158,
      "à": 159,
      "á": 160,
      "â": 161,
      "ã": 162,
      "ä": 163,
      "å": 164,
      "æ": 165,
      "ç": 166,
      "è": 167,
      "é": 168,
      "ê": 169,
      "ë": 170,
      "ì": 171,
      "í": 172,
      "ï": 173,
      "ð": 174,
      "Ċ": 175,
      "Ġ": 176,
      "Ģ": 177,
      "ģ": 178,
      "Ĥ": 179,
      "ĥ": 180,
      "Ħ": 181,
      "ħ": 182,
      "Ĩ": 183,
      "ĩ": 184,
      "Ī": 185,
      "ī": 186,
      "Ĭ": 187,
      "ĭ": 188,
      "Į": 189,
      "į": 190,
      "İ": 191,
      "ı": 192,
      "Ĳ": 193,
      "ĳ": 194,
      "Ĵ": 195,
      "ĵ": 196,
      "Ķ": 197,
      "ķ": 198,
      "ĸ": 199,
      "Ĺ": 200,
      "ĺ": 201,
      "Ļ": 202,
      "ļ": 203,
      "Ľ": 204,
      "ľ": 205,
      "Ŀ": 206,
      "ŀ": 207,
      "Ł": 208,
      "ł": 209,
      "Ń": 210,
      "Ġa": 211,
      "Ġd": 212,
      "es": 213,
      "Ġp": 214,
      "er": 215,
      "Ġt": 216,
      "en": 217,
      "Ġc": 218,
      "in": 219,
      "ar": 220,
      "os": 221,
      "or": 222,
      "Ġs": 223,
      "Ġe": 224,
      "on": 225,
      "as": 226,
      "Ġde": 227,
      "is": 228,
      "Ġo": 229,
      "an": 230,
      "Ġm": 231,
      "re": 232,
      "al": 233,
      "ad": 234,
      "ent": 235,
      "Ġn": 236,
      "qu": 237,
      "Ġf": 238,
      "om": 239,
      "he": 240,
      "ti": 241,
      "Ã£": 242,
      "Ã£o": 243,
      "it": 244,
      "Ã§": 245,
      "ic": 246,
      "ro": 247,
      "am": 248,
      "Ġqu": 249,
      "at": 250,
      "Ġthe": 251,
      "id": 252,
      "em": 253,
      "Ġb": 254,
      "Ġin": 255,
      "um": 256,
      "el": 257,
      "Ġcom": 258,
      "ia": 259,
      "ra": 260,
      "Ã©": 261,
      "ed": 262,
      "Ġv": 263,
      "Ã¡": 264,
      "Ġan": 265,
      "Ġque": 266,
      "ou": 267,
      "Ġl": 268,
      "im": 269,
      "Ġw": 270,
      "il": 271,
      "Ġdo": 272,
      "ol": 273,
      "Ġre": 274,
      "Ġpar": 275,
      "est": 276,
      "ing": 277,
      "Ã§Ã£o": 278,
      "Ġum": 279,
      "Ġof": 280,
      "Ġto": 281,
      "ec": 282,
      "us": 283,
      "Ġcon": 284,
      "Ġh": 285,
      "do": 286,
      "ĠA": 287,
      "ri": 288,
      "Ġem": 289,
      "un": 290,
      "ĠC": 291,
      "Ġse": 292,
      "âĢ": 293,
      "Ġg": 294,
      "ess": 295,
      "ul": 296,
      "ÃŃ": 297,
      "Ġda": 298,
      "Ġand": 299,
      "ĠS": 300,
      "ta": 301,
      "Ġpara": 302,
      "Ġno": 303,
      "ci": 304,
      "ĠP": 305,
      "ut": 306,
      "ir": 307,
      "ur": 308,
      "le": 309,
      "te": 310,
      "Ġpro": 311,
      "Ġas": 312,
      "Ġth": 313,
      "to": 314,
      "ĠM": 315,
      "ĠE": 316,
      "ĠT": 317,
      "ado": 318,
      "tion": 319,
      "res": 320,
      "ve": 321,
      "ente": 322,
      "Ãª": 323,
      "ais": 324,
      "Ã³": 325,
      "ac": 326,
      "aÃ§Ã£o": 327,
      "od": 328,
      "ĠÃ©": 329,
      "ter": 330,
      "Ġfor": 331,
      "oc": 332,
      "Ġest": 333,
      "ig": 334,
      "Ġal": 335,
      "ver": 336,
      "et": 337,
      "ade": 338,
      "Ġsu": 339,
      "iz": 340,
      "Ġex": 341,
      "Ġis": 342,
      "ĠB": 343,
      "Ġuma": 344,
      "ĠD": 345,
      "ĠI": 346,
      "ist": 347,
      "ce": 348,
      "Ġ(": 349,
      "Ġ1": 350,
      "ento": 351,
      "Ġos": 352,
      "Ġna": 353,
      "Ãµ": 354,
      "Ġpor": 355,
      "ho": 356,
      "ada": 357,
      "Ãµes": 358,
      "ĠR": 359,
      "Ġat": 360,
      "ab": 361,
      "de": 362,
      "ag": 363,
      "Ġap": 364,
      "ĠF": 365,
      "ei": 366,
      "ĠO": 367,
      "Ġj": 368,
      "if": 369,
      "Ġ2": 370,
      "ĠN": 371,
      "Ġpr": 372,
      "Ġac": 373,
      "Ġes": 374,
      "st": 375,
      "tic": 376,
      "tiv": 377,
      "ĠâĢ": 378,
      "Ġser": 379,
      "Ġon": 380,
      "ando": 381,
      "idade": 382,
      "ĠnÃ£o": 383,
      "Ġen": 384,
      "so": 385,
      "th": 386,
      "da": 387,
      "ĠÃ": 388,
      "se": 389,
      "og": 390,
      "ly": 391,
      "ma": 392,
      "ha": 393,
      "ados": 394,
      "ica": 395,
      "ĠL": 396,
      "Ġmais": 397,
      "ran": 398,
      "ĠG": 399,
      "Ã§Ãµes": 400,
      "Ġdes": 401,
      "iv": 402,
      "tu": 403,
      "Ġper": 404,
      "Ġbe": 405,
      "ito": 406,
      "per": 407,
      "por": 408,
      "ant": 409,
      "pl": 410,
      "Ġor": 411,
      "Ġy": 412,
      "Ġr": 413,
      "Ġso": 414,
      "cia": 415,
      "Ġthat": 416,
      "Ġim": 417,
      "ion": 418,
      "io": 419,
      "end": 420,
      "Ġpre": 421,
      "ens": 422,
      "Ġdos": 423,
      "Ġcomo": 424,
      "Ãº": 425,
      "vel": 426,
      "ĠH": 427,
      "Ġpel": 428,
      "Ġres": 429,
      "for": 430,
      "ow": 431,
      "tr": 432,
      "eg": 433,
      "ai": 434,
      "Ġcomp": 435,
      "Ã©m": 436,
      "ores": 437,
      "Ã¡ri": 438,
      "Ãªn": 439,
      "Ġtem": 440,
      "Ġpod": 441,
      "ith": 442,
      "po": 443,
      "ch": 444,
      "âĢĿ": 445,
      "gu": 446,
      "Ġus": 447,
      "Ġdis": 448,
      "Ġent": 449,
      "av": 450,
      "oss": 451,
      "Ġdi": 452,
      "Ġou": 453,
      "ĠJ": 454,
      "Ã§a": 455,
      "Ġare": 456,
      "du": 457,
      "Ġwh": 458,
      "ay": 459,
      "ap": 460,
      "Ġyou": 461,
      "and": 462,
      "Ġcont": 463,
      "00": 464,
      "Ġao": 465,
      "Ġmu": 466,
      "ot": 467,
      "ation": 468,
      "ras": 469,
      "Ġit": 470,
      "ĠV": 471,
      "ere": 472,
      "bl": 473,
      "..": 474,
      "Ġwith": 475,
      "ers": 476,
      "op": 477,
      "Ġab": 478,
      "ante": 479,
      "ocÃª": 480,
      "ĠU": 481,
      "ĠâĢľ": 482,
      "ĠÃł": 483,
      "ial": 484,
      "ĠW": 485,
      "ass": 486,
      "mo": 487,
      "esso": 488,
      "Ġar": 489,
      "amento": 490,
      "Ġout": 491,
      "ost": 492,
      "Ġch": 493,
      "Ġter": 494,
      "âĢĻ": 495,
      "az": 496,
      "Ġfo": 497,
      "ido": 498,
      "cion": 499,
      "ĠIn": 500,
      "co": 501,
      "ida": 502,
      "ate": 503,
      "con": 504,
      "Ġfr": 505,
      "Ġdas": 506,
      "Ġcl": 507,
      "Ãªncia": 508,
      "port": 509,
      "ib": 510,
      "pe": 511,
      "Ġle": 512,
      "Ġpl": 513,
      "Ġcan": 514,
      "adas": 515,
      "ĠvocÃª": 516,
      "pec": 517,
      "Ġcar": 518,
      "gr": 519,
      "ud": 520,
      "cl": 521,
      "ill": 522,
      "amente": 523,
      "Ġsua": 524,
      "ico": 525,
      "Ġel": 526,
      "Ġam": 527,
      "up": 528,
      "Ġtra": 529,
      "Ġ20": 530,
      "ĠThe": 531,
      "Ġtr": 532,
      "Ġsem": 533,
      "que": 534,
      "ity": 535,
      "amb": 536,
      "ora": 537,
      "Ġhe": 538,
      "ria": 539,
      "Ġad": 540,
      "Ġseu": 541,
      "und": 542,
      "bre": 543,
      "ome": 544,
      "ual": 545,
      "Ġme": 546,
      "Ġcons": 547,
      "Ġinter": 548,
      "ite": 549,
      "ts": 550,
      "ke": 551,
      "Ġman": 552,
      "ov": 553,
      "ine": 554,
      "Ġfoi": 555,
      "entes": 556,
      "ld": 557,
      "Ġcas": 558,
      "mente": 559,
      "imento": 560,
      "ge": 561,
      "til": 562,
      "ip": 563,
      "Ġby": 564,
      "Ġcor": 565,
      "ment": 566,
      "fer": 567,
      "ambÃ©m": 568,
      "eira": 569,
      "ros": 570,
      "bal": 571,
      "Ġnos": 572,
      "endo": 573,
      "vi": 574,
      "ave": 575,
      "Ġob": 576,
      "Ġass": 577,
      "ĠsÃ£o": 578,
      "aliz": 579,
      "ru": 580,
      "ina": 581,
      "Ġco": 582,
      "Ġrec": 583,
      "Ġ3": 584,
      "pres": 585,
      "di": 586,
      "Ġcol": 587,
      "Ã¡rio": 588,
      "Ġfrom": 589,
      "Ġmor": 590,
      "ador": 591,
      "Ġfaz": 592,
      "ont": 593,
      "igh": 594,
      "ades": 595,
      "Ġsobre": 596,
      "entos": 597,
      "ez": 598,
      "amos": 599,
      "Ġess": 600,
      "Ġmas": 601,
      "tor": 602,
      "ura": 603,
      "Ġwas": 604,
      "ĠtambÃ©m": 605,
      "Ã§o": 606,
      "Ã¢": 607,
      "Ġne": 608,
      "ca": 609,
      "fic": 610,
      "gh": 611,
      "Ġmes": 612,
      "ja": 613,
      "ara": 614,
      "Ġnot": 615,
      "Ġpode": 616,
      "va": 617,
      "ĠâĢĵ": 618,
      "pre": 619,
      "iss": 620,
      "oun": 621,
      "Ġele": 622,
      "ide": 623,
      "ard": 624,
      "pos": 625,
      "vers": 626,
      "Ġrel": 627,
      "Ġver": 628,
      "ust": 629,
      "ista": 630,
      "ĠestÃ¡": 631,
      "elh": 632,
      "ast": 633,
      "go": 634,
      "je": 635,
      "anto": 636,
      "Ġdif": 637,
      "Ġ-": 638,
      "ater": 639,
      "Ġhave": 640,
      "ear": 641,
      "Ġqual": 642,
      "Ġentre": 643,
      "Ġun": 644,
      "ber": 645,
      "lo": 646,
      "ons": 647,
      "Ġposs": 648,
      "Ġev": 649,
      "cis": 650,
      "ult": 651,
      "Ġreg": 652,
      "ther": 653,
      "Ġpelo": 654,
      "her": 655,
      "dos": 656,
      "our": 657,
      "ita": 658,
      "ell": 659,
      "par": 660,
      "Ġwe": 661,
      "Ġmar": 662,
      "Ġag": 663,
      "ign": 664,
      "all": 665,
      "Ġproc": 666,
      "ure": 667,
      "Ġesc": 668,
      "Ġst": 669,
      "Ġmuito": 670,
      "Ġthis": 671,
      "),": 672,
      "ord": 673,
      "ase": 674,
      "Ġro": 675,
      "Ġpesso": 676,
      "Ġte": 677,
      "har": 678,
      "ÃŃs": 679,
      ").": 680,
      "ĠAl": 681,
      "Ġpres": 682,
      "Ġpa": 683,
      "idades": 684,
      "ĠTh": 685,
      "ato": 686,
      "duc": 687,
      "pr": 688,
      "ĠCom": 689,
      "Ġsa": 690,
      "inha": 691,
      "Ã³s": 692,
      "rans": 693,
      "ular": 694,
      "Ġfin": 695,
      "Ġpela": 696,
      "Ġma": 697,
      "ich": 698,
      "ira": 699,
      "qui": 700,
      "itos": 701,
      "undo": 702,
      "ect": 703,
      "Ġ\"": 704,
      "tivo": 705,
      "Ġgo": 706,
      "Ġk": 707,
      "tim": 708,
      "vol": 709,
      "Ġpass": 710,
      "Ġdia": 711,
      "Ġdest": 712,
      "ĠAn": 713,
      "Ġ201": 714,
      "Ġpe": 715,
      "Ġtrabal": 716,
      "cial": 717,
      "eiro": 718,
      "Ġfe": 719,
      "ical": 720,
      "Ġind": 721,
      "form": 722,
      "tions": 723,
      "ata": 724,
      "olog": 725,
      "ated": 726,
      "ould": 727,
      "Ã´": 728,
      "inda": 729,
      "Ġaf": 730,
      "Ġdire": 731,
      "cip": 732,
      "ĠK": 733,
      "ĠjÃ¡": 734,
      "ies": 735,
      "ix": 736,
      "orn": 737,
      "Ġparti": 738,
      "Ġ19": 739,
      "out": 740,
      "rasil": 741,
      "iti": 742,
      "ok": 743,
      "mer": 744,
      "Ã¢n": 745,
      "cer": 746,
      "aus": 747,
      "ific": 748,
      "fe": 749,
      "Ġalg": 750,
      "ĠEs": 751,
      "ian": 752,
      "Ġins": 753,
      "Ġyour": 754,
      "Ġseg": 755,
      "ime": 756,
      "forma": 757,
      "ĠatÃ©": 758,
      "tes": 759,
      "Ġtheir": 760,
      "Qu": 761,
      "ĠDe": 762,
      "Ġmelh": 763,
      "antes": 764,
      "ents": 765,
      "Ġnov": 766,
      "ach": 767,
      "Ġtrans": 768,
      "Ġwor": 769,
      "agem": 770,
      "ÃŃvel": 771,
      "The": 772,
      "ong": 773,
      "...": 774,
      "ance": 775,
      "ias": 776,
      "ous": 777,
      "tica": 778,
      "ence": 779,
      "ĠAs": 780,
      "ĠÃ¡": 781,
      "aÃ§Ãµes": 782,
      "Ġpol": 783,
      "Ġop": 784,
      "eral": 785,
      "Ã¡rios": 786,
      "ves": 787,
      "rio": 788,
      "cio": 789,
      "Ġ4": 790,
      "Ġaut": 791,
      "one": 792,
      "Ġcam": 793,
      "iro": 794,
      "rib": 795,
      "20": 796,
      "ece": 797,
      "adores": 798,
      "idos": 799,
      "Ġ5": 800,
      "Ġanos": 801,
      "iÃ§Ã£o": 802,
      "Ġche": 803,
      "Ġmo": 804,
      "ub": 805,
      "ive": 806,
      "pa": 807,
      "Ġisso": 808,
      "ĠMar": 809,
      "Ġjog": 810,
      "Ġcer": 811,
      "Ġcri": 812,
      "Ġimport": 813,
      "Ġbo": 814,
      "emb": 815,
      "Ġthey": 816,
      "Ġwill": 817,
      "Ġnas": 818,
      "ef": 819,
      "Ġmil": 820,
      "Ġempres": 821,
      "Ġwhich": 822,
      "Ġcr": 823,
      "gar": 824,
      "Ġsol": 825,
      "Ġseus": 826,
      "Ġall": 827,
      "ĠUn": 828,
      "aix": 829,
      "Ġpra": 830,
      "anÃ§": 831,
      "cul": 832,
      "Ġmore": 833,
      "Ġer": 834,
      "Ġprof": 835,
      "min": 836,
      "Ġespec": 837,
      "||": 838,
      "ĠEn": 839,
      "Ġainda": 840,
      "Ġloc": 841,
      "Ġincl": 842,
      "Ġmod": 843,
      "ese": 844,
      "Ġprim": 845,
      "Ġmin": 846,
      "Ġhas": 847,
      "Ġform": 848,
      "tive": 849,
      "Ġvis": 850,
      "itar": 851,
      "indo": 852,
      "gram": 853,
      "ks": 854,
      "Ġvez": 855,
      "age": 856,
      "emos": 857,
      "Ġmed": 858,
      "Ġval": 859,
      "Ġcap": 860,
      "Ġfil": 861,
      "tar": 862,
      "pon": 863,
      "Ġfazer": 864,
      "ĠPor": 865,
      "veis": 866,
      "rou": 867,
      "Ġfun": 868,
      "entar": 869,
      "Ġinc": 870,
      "ame": 871,
      "hos": 872,
      "gan": 873,
      "Ġpo": 874,
      "cional": 875,
      "ight": 876,
      "ÃŃn": 877,
      "ino": 878,
      "ace": 879,
      "Ġmesmo": 880,
      "son": 881,
      "Ġconf": 882,
      "Ãªs": 883,
      "ema": 884,
      "Ġsim": 885,
      "tal": 886,
      "Ġinf": 887,
      "Ġtodos": 888,
      "ana": 889,
      "enas": 890,
      "Ġbem": 891,
      "icas": 892,
      "âĢĿ,": 893,
      "Ġfal": 894,
      "ĠprÃ³": 895,
      "idas": 896,
      "anÃ§a": 897,
      "Ġgran": 898,
      "ild": 899,
      "Ġmen": 900,
      "no": 901,
      "me": 902,
      "Ġra": 903,
      "tiva": 904,
      "Ġrece": 905,
      "ue": 906,
      "Ġquando": 907,
      "ĠÃº": 908,
      "wn": 909,
      "ios": 910,
      "uc": 911,
      "red": 912,
      "Ġpessoas": 913,
      "Ã¡s": 914,
      "ĠPro": 915,
      "este": 916,
      "udo": 917,
      "rar": 918,
      "king": 919,
      "ecess": 920,
      "ĠEst": 921,
      "Ġmelhor": 922,
      "Ġgr": 923,
      "Ġeu": 924,
      "Ġmai": 925,
      "dut": 926,
      "la": 927,
      "Ġprecis": 928,
      "com": 929,
      "ie": 930,
      "pro": 931,
      "int": 932,
      "Ġbut": 933,
      "xim": 934,
      "ubl": 935,
      "icos": 936,
      "na": 937,
      "cias": 938,
      "Ġforma": 939,
      "Ġsegu": 940,
      "quer": 941,
      "ĠCon": 942,
      "Ġeste": 943,
      "ack": 944,
      "Ġaos": 945,
      "erc": 946,
      "pan": 947,
      "der": 948,
      "Ġnoss": 949,
      "ely": 950,
      "unic": 951,
      "das": 952,
      "Ġcur": 953,
      "ilidade": 954,
      "Ġalso": 955,
      "ĠCh": 956,
      "Ġsh": 957,
      "Ġsub": 958,
      "art": 959,
      "Ġano": 960,
      "ex": 961,
      "Ġnecess": 962,
      "Ãºbl": 963,
      "esta": 964,
      "erg": 965,
      "Ã¡vel": 966,
      "ava": 967,
      "Ġconta": 968,
      "Ġneg": 969,
      "Ġtempo": 970,
      "aram": 971,
      "ano": 972,
      "Ã§os": 973,
      "cor": 974,
      "Ã©d": 975,
      "ĠBrasil": 976,
      "ital": 977,
      "Ġprin": 978,
      "Ġone": 979,
      "ten": 980,
      "ider": 981,
      "Ġrealiz": 982,
      "ga": 983,
      "peri": 984,
      "erv": 985,
      "Ġdur": 986,
      "'s": 987,
      "rav": 988,
      "Ġpoder": 989,
      "Ġinforma": 990,
      "Ġpos": 991,
      "volv": 992,
      "titu": 993,
      "rit": 994,
      "Ġwere": 995,
      "esse": 996,
      "Ġsab": 997,
      "Ġprov": 998,
      "ne": 999,
      "ĠRe": 1000,
      "reat": 1001,
      "Ġlo": 1002,
      "Ġsuas": 1003,
      "iros": 1004,
      "ĠSe": 1005,
      "Ã©s": 1006,
      "ces": 1007,
      "Ġencon": 1008,
      "Ġta": 1009,
      "ela": 1010,
      "ire": 1011,
      "Ġdem": 1012,
      "Ġvol": 1013,
      "ice": 1014,
      "ple": 1015,
      "Ġnum": 1016,
      "ĠY": 1017,
      "ph": 1018,
      "Ġabout": 1019,
      "Com": 1020,
      "Ġu": 1021,
      "Ġstu": 1022,
      "Ġdef": 1023,
      "pt": 1024,
      "Ġprodut": 1025,
      "ele": 1026,
      "Ġfac": 1027,
      "dade": 1028,
      "Ġfam": 1029,
      "Ġir": 1030,
      "bo": 1031,
      "In": 1032,
      "Ġav": 1033,
      "Ġ6": 1034,
      "ose": 1035,
      "Ġother": 1036,
      "ĠÃłs": 1037,
      "able": 1038,
      "Ġhist": 1039,
      "elo": 1040,
      "iais": 1041,
      "ys": 1042,
      "tiliz": 1043,
      "inho": 1044,
      "ish": 1045,
      "ission": 1046,
      "enta": 1047,
      "almente": 1048,
      "Ġprobl": 1049,
      "Ġfl": 1050,
      "car": 1051,
      "uro": 1052,
      "Ġvai": 1053,
      "Ġsur": 1054,
      "hec": 1055,
      "Ġmaior": 1056,
      "Ġcome": 1057,
      "ĠEm": 1058,
      "ari": 1059,
      "Ġvida": 1060,
      "Ġtec": 1061,
      "ender": 1062,
      "ĠPa": 1063,
      "Ġmost": 1064,
      "Ġup": 1065,
      "Ġcaus": 1066,
      "ins": 1067,
      "tura": 1068,
      "ĠsÃ³": 1069,
      "tos": 1070,
      "eio": 1071,
      "Ġ200": 1072,
      "ĠQu": 1073,
      "Ġaj": 1074,
      "mos": 1075,
      "ĠhÃ¡": 1076,
      "les": 1077,
      "Ġescol": 1078,
      "tivos": 1079,
      "iÃ£o": 1080,
      "Ġfic": 1081,
      "ĠestÃ£o": 1082,
      "Ġsec": 1083,
      "orm": 1084,
      "Ġcada": 1085,
      "has": 1086,
      "Ġdesen": 1087,
      "ural": 1088,
      "Ġli": 1089,
      "ise": 1090,
      "Ġmul": 1091,
      "ecer": 1092,
      "Ġsy": 1093,
      "Ġtime": 1094,
      "Ġalgum": 1095,
      "Ã³ria": 1096,
      "ric": 1097,
      "Ġdev": 1098,
      "ary": 1099,
      "Ġsome": 1100,
      "ulo": 1101,
      "itas": 1102,
      "Ġ10": 1103,
      "Ġlu": 1104,
      "iente": 1105,
      "Ġprogram": 1106,
      "Ġoutros": 1107,
      "istas": 1108,
      "ws": 1109,
      "ff": 1110,
      "uns": 1111,
      "Ġequ": 1112,
      "ates": 1113,
      "Ġpodem": 1114,
      "âĢľ": 1115,
      "now": 1116,
      "Ġhum": 1117,
      "Ġthem": 1118,
      "Ġespecial": 1119,
      "iu": 1120,
      "tico": 1121,
      "Ġcomple": 1122,
      "Ġinst": 1123,
      "Ġperm": 1124,
      "Ġsal": 1125,
      "iar": 1126,
      "Ġits": 1127,
      "ps": 1128,
      "Ġtrabalho": 1129,
      "Ġdist": 1130,
      "Ġliv": 1131,
      "za": 1132,
      "10": 1133,
      "Ġdifer": 1134,
      "inu": 1135,
      "ident": 1136,
      "Ġbec": 1137,
      "ans": 1138,
      "Ġcent": 1139,
      "rig": 1140,
      "Ġexpl": 1141,
      "ĠAr": 1142,
      "tir": 1143,
      "ile": 1144,
      "Ġofer": 1145,
      "Ġonde": 1146,
      "Ġservi": 1147,
      "Ġapenas": 1148,
      "ople": 1149,
      "Ġprincip": 1150,
      "Ġimp": 1151,
      "ĠIt": 1152,
      "Ġutiliz": 1153,
      "Ġthan": 1154,
      "Ã´n": 1155,
      "Ġconst": 1156,
      "ind": 1157,
      "Ġcomm": 1158,
      "Ġsempre": 1159,
      "ally": 1160,
      "Ġmay": 1161,
      "Ġext": 1162,
      "Ġorgan": 1163,
      "ĠserÃ¡": 1164,
      "Ġapres": 1165,
      "ang": 1166,
      "Ġ7": 1167,
      "Ġsc": 1168,
      "Ġgover": 1169,
      "Ġpop": 1170,
      "Ġgen": 1171,
      "ven": 1172,
      "ivers": 1173,
      "br": 1174,
      "Ãªm": 1175,
      "ct": 1176,
      "pois": 1177,
      "Ġquer": 1178,
      "ree": 1179,
      "ublic": 1180,
      "are": 1181,
      "Ġparte": 1182,
      "Ġyear": 1183,
      "ings": 1184,
      "Ġhis": 1185,
      "Ġpes": 1186,
      "Ġresult": 1187,
      "Ã¡ria": 1188,
      "ĠNo": 1189,
      "ior": 1190,
      "Ġint": 1191,
      "enh": 1192,
      "des": 1193,
      "enda": 1194,
      "ÃŃl": 1195,
      "Ġwhen": 1196,
      "As": 1197,
      "Ġdeix": 1198,
      "Ġwho": 1199,
      "Ġstud": 1200,
      "Ġforam": 1201,
      "Ġ8": 1202,
      "Ġprodu": 1203,
      "Ġmom": 1204,
      "Ġbl": 1205,
      "Ġgro": 1206,
      "ations": 1207,
      "Ġempresa": 1208,
      "Ġgar": 1209,
      "ĠpÃºbl": 1210,
      "ĠOs": 1211,
      "tas": 1212,
      "Ġped": 1213,
      "Ġbeen": 1214,
      "Ġdiz": 1215,
      "Ġgrande": 1216,
      "Es": 1217,
      "Ġresp": 1218,
      "Ġsign": 1219,
      "izaÃ§Ã£o": 1220,
      "plo": 1221,
      "Ġsit": 1222,
      "rea": 1223,
      "Ġinto": 1224,
      "Ġela": 1225,
      "amentos": 1226,
      "press": 1227,
      "isa": 1228,
      "Ġban": 1229,
      "ren": 1230,
      "Ġconse": 1231,
      "Ġplan": 1232,
      "Ġhow": 1233,
      "Ġmundo": 1234,
      "ient": 1235,
      "ĠThis": 1236,
      "Ġnat": 1237,
      "Ġthere": 1238,
      "Ġseja": 1239,
      "Ġtorn": 1240,
      "Ġpeople": 1241,
      "Ġfir": 1242,
      "be": 1243,
      "ft": 1244,
      "ound": 1245,
      "Ġover": 1246,
      "Ġtudo": 1247,
      "ES": 1248,
      "19": 1249,
      "ory": 1250,
      "cios": 1251,
      "Ġ9": 1252,
      "ĠÃī": 1253,
      "ram": 1254,
      "feira": 1255,
      "ĠPar": 1256,
      "Ġpou": 1257,
      "Ġsent": 1258,
      "ticas": 1259,
      "Ãºde": 1260,
      "rough": 1261,
      "Ġesse": 1262,
      "line": 1263,
      "Ġstr": 1264,
      "Ġund": 1265,
      "cess": 1266,
      "idente": 1267,
      "ismo": 1268,
      "Ġdeve": 1269,
      "inal": 1270,
      "Ġti": 1271,
      "Ġmet": 1272,
      "ĠEx": 1273,
      "Ġthese": 1274,
      "Ġexperi": 1275,
      "Ġmerc": 1276,
      "Ġestr": 1277,
      "Ġour": 1278,
      "Ã³r": 1279,
      "ĠFor": 1280,
      "âĢĿ.": 1281,
      "Ã§as": 1282,
      "alth": 1283,
      "Ġhom": 1284,
      "Ġperson": 1285,
      "ough": 1286,
      "Ġconsider": 1287,
      "we": 1288,
      "Ġinves": 1289,
      "Ġapl": 1290,
      "Ġcontra": 1291,
      "af": 1292,
      "hn": 1293,
      "Ġdu": 1294,
      "Ġ0": 1295,
      "Ġtodo": 1296,
      "ui": 1297,
      "imentos": 1298,
      "Ġqualquer": 1299,
      "Ġera": 1300,
      "ĠSÃ£o": 1301,
      "ima": 1302,
      "Ġhel": 1303,
      "pend": 1304,
      "ry": 1305,
      "Ġbus": 1306,
      "Ãªncias": 1307,
      "arÃ¡": 1308,
      "Ġassim": 1309,
      "RA": 1310,
      "ement": 1311,
      "Ã¡l": 1312,
      "ĠNa": 1313,
      "ĠpaÃŃs": 1314,
      "Ġbet": 1315,
      "Ġdias": 1316,
      "ern": 1317,
      "ena": 1318,
      "Ã©r": 1319,
      "Ġuse": 1320,
      "oje": 1321,
      "Ġlim": 1322,
      "Ã©c": 1323,
      "Ġsite": 1324,
      "ĠCar": 1325,
      "ique": 1326,
      "Ġsho": 1327,
      "ning": 1328,
      "Ġknow": 1329,
      "ities": 1330,
      "ays": 1331,
      "Ġneed": 1332,
      "Ġprom": 1333,
      "iaÃ§Ã£o": 1334,
      "itor": 1335,
      "Ġaqui": 1336,
      "Ġcontro": 1337,
      "Ġapro": 1338,
      "Ġquem": 1339,
      "ĠIs": 1340,
      "Ġessa": 1341,
      "Ġlev": 1342,
      "iras": 1343,
      "Ġ18": 1344,
      "Ġref": 1345,
      "Ġpag": 1346,
      "Ġhor": 1347,
      "Ġamb": 1348,
      "Ġhigh": 1349,
      "Ġdois": 1350,
      "Ġprocess": 1351,
      "Ġaqu": 1352,
      "Ġgu": 1353,
      "ĠWh": 1354,
      "ond": 1355,
      "Ġsist": 1356,
      "Ġporque": 1357,
      "Ġproblem": 1358,
      "Ġcontr": 1359,
      "Ġcasa": 1360,
      "urs": 1361,
      "entro": 1362,
      "velop": 1363,
      "gem": 1364,
      "ua": 1365,
      "ÃŃcio": 1366,
      "Ġmat": 1367,
      "anta": 1368,
      "ĠÃºl": 1369,
      "cent": 1370,
      "ew": 1371,
      "aria": 1372,
      "Ġhad": 1373,
      "stem": 1374,
      "tain": 1375,
      "ĠCl": 1376,
      "Ġcal": 1377,
      "vis": 1378,
      "hed": 1379,
      "wo": 1380,
      "Ġif": 1381,
      "Ġoper": 1382,
      "Ġdiv": 1383,
      "Ġwork": 1384,
      "ples": 1385,
      "Ġdec": 1386,
      "Ġrela": 1387,
      "Ġmon": 1388,
      "Ġger": 1389,
      "Ġide": 1390,
      "Ġecon": 1391,
      "Ġunder": 1392,
      "icion": 1393,
      "Ġsuch": 1394,
      "Os": 1395,
      "pri": 1396,
      "Ġencontr": 1397,
      "ob": 1398,
      "ain": 1399,
      "Ġany": 1400,
      "Ġlocal": 1401,
      "Ġcaso": 1402,
      "Ġsom": 1403,
      "Ġris": 1404,
      "Ġvia": 1405,
      "Ġdisc": 1406,
      "Th": 1407,
      "Ã¡rias": 1408,
      "ating": 1409,
      "Ġchild": 1410,
      "reas": 1411,
      "Em": 1412,
      "Ġwould": 1413,
      "Ġesta": 1414,
      "Ġcu": 1415,
      "ĠPara": 1416,
      "Ġwhat": 1417,
      "ÃŃveis": 1418,
      "Ġvi": 1419,
      "Ã¢ncia": 1420,
      "Ġeles": 1421,
      "Ġben": 1422,
      "ĠAss": 1423,
      "Ġspec": 1424,
      "ĠvÃŃ": 1425,
      "Ġmeio": 1426,
      "ĠSt": 1427,
      "Ġdurante": 1428,
      "ĠpolÃŃ": 1429,
      "Ġreal": 1430,
      "ep": 1431,
      "Ġoc": 1432,
      "very": 1433,
      "cel": 1434,
      "Ġten": 1435,
      "ced": 1436,
      "ower": 1437,
      "Ġused": 1438,
      "ej": 1439,
      "tern": 1440,
      "essa": 1441,
      "ba": 1442,
      "inas": 1443,
      "Ġ15": 1444,
      "Ġprofission": 1445,
      "Ã©ri": 1446,
      "Ġcab": 1447,
      "Ġleg": 1448,
      "ĠinformaÃ§Ãµes": 1449,
      "cil": 1450,
      "Ġjun": 1451,
      "old": 1452,
      "Ġrespons": 1453,
      "Ġfirst": 1454,
      "earch": 1455,
      "heiro": 1456,
      "enÃ§a": 1457,
      "Ġoutras": 1458,
      "ug": 1459,
      "Ġmater": 1460,
      "ink": 1461,
      "ore": 1462,
      "Ġtodas": 1463,
      "atos": 1464,
      "Ġpublic": 1465,
      "tt": 1466,
      "anÃ§as": 1467,
      "ors": 1468,
      "vent": 1469,
      "ĠGo": 1470,
      "Ġconhec": 1471,
      "jeto": 1472,
      "ula": 1473,
      "cos": 1474,
      "Ġmercado": 1475,
      "Ġbas": 1476,
      "ribu": 1477,
      "estÃ£o": 1478,
      "Ġsendo": 1479,
      "Ġmany": 1480,
      "Ġnew": 1481,
      "Ġconsegu": 1482,
      "Ġonly": 1483,
      "Ġthrough": 1484,
      "anti": 1485,
      "tivas": 1486,
      "ĠPr": 1487,
      "ĠalÃ©m": 1488,
      "Ġfuncion": 1489,
      "ĠMas": 1490,
      "ental": 1491,
      "Ġserv": 1492,
      "acter": 1493,
      "Ġnovo": 1494,
      "Ġesp": 1495,
      "Al": 1496,
      "Ġtoda": 1497,
      "Ġbr": 1498,
      "ogo": 1499,
      "ordo": 1500,
      "ologia": 1501,
      "fr": 1502,
      "oll": 1503,
      "Ġmov": 1504,
      "Ġdivers": 1505,
      "ck": 1506,
      "Ġpal": 1507,
      "irm": 1508,
      "Ġcontinu": 1509,
      "ount": 1510,
      "ick": 1511,
      "agens": 1512,
      "enci": 1513,
      "Ġalguns": 1514,
      "Ġri": 1515,
      "Ġfut": 1516,
      "iam": 1517,
      "Ġacont": 1518,
      "Ġfer": 1519,
      "ĠAm": 1520,
      "Ġher": 1521,
      "Ġgra": 1522,
      "Ġnosso": 1523,
      "gua": 1524,
      "Ġcidade": 1525,
      "No": 1526,
      "Ġdevelop": 1527,
      "Ġfinal": 1528,
      "Ã³g": 1529,
      "ĠprÃ³xim": 1530,
      "ily": 1531,
      "Ġinic": 1532,
      "Ġdepois": 1533,
      "Ġdiffer": 1534,
      "Ġlar": 1535,
      "Ġpossib": 1536,
      "Ġhelp": 1537,
      "Ġident": 1538,
      "tima": 1539,
      "Ġsocial": 1540,
      "edade": 1541,
      "Ġinclu": 1542,
      "ĠSo": 1543,
      "abor": 1544,
      "Ġbar": 1545,
      "Ãºmer": 1546,
      "Ġparticip": 1547,
      "Ġmomento": 1548,
      "Ġlike": 1549,
      "Para": 1550,
      "col": 1551,
      "Ġlong": 1552,
      "ife": 1553,
      "Ġinte": 1554,
      "OS": 1555,
      "ture": 1556,
      "ger": 1557,
      "embro": 1558,
      "ÃŃp": 1559,
      "Ġla": 1560,
      "onte": 1561,
      "Ġpois": 1562,
      "uÃ§Ã£o": 1563,
      "Ġexem": 1564,
      "Ġnossa": 1565,
      "ientes": 1566,
      "Ġsp": 1567,
      "ĠapÃ³s": 1568,
      "ER": 1569,
      "Ġativ": 1570,
      "ĠAd": 1571,
      "Ġfa": 1572,
      "Ġdata": 1573,
      "Ġcondi": 1574,
      "Ġrepres": 1575,
      "ĠmÃ©d": 1576,
      "Ã³rio": 1577,
      "Ġcomb": 1578,
      "Ġdispon": 1579,
      "eb": 1580,
      "Ġprimeiro": 1581,
      "Ġsup": 1582,
      "Ġmulher": 1583,
      "Ġproj": 1584,
      "Ġsegur": 1585,
      "Ġdesenvolv": 1586,
      "Ġdisse": 1587,
      "ale": 1588,
      "EN": 1589,
      "Ġdoc": 1590,
      "Ġvari": 1591,
      "ravÃ©s": 1592,
      "Ġpri": 1593,
      "Ġproduc": 1594,
      "ath": 1595,
      "Ġbel": 1596,
      "Ġprocesso": 1597,
      "Ġaum": 1598,
      "000": 1599,
      "ures": 1600,
      "Ġsystem": 1601,
      "tig": 1602,
      "rem": 1603,
      "raÃ§Ã£o": 1604,
      "Ġacordo": 1605,
      "ifica": 1606,
      "Ġajud": 1607,
      "Ġtur": 1608,
      "Ġfund": 1609,
      "arm": 1610,
      "tro": 1611,
      "Ġhoje": 1612,
      "ĠZ": 1613,
      "Ã¢m": 1614,
      "Ġtwo": 1615,
      "Ã©cn": 1616,
      "its": 1617,
      "ted": 1618,
      "Ġtest": 1619,
      "Ġvalor": 1620,
      "Ġsitu": 1621,
      "ĠNÃ£o": 1622,
      "Ġgan": 1623,
      ".âĢĿ": 1624,
      "Ġtrad": 1625,
      "igo": 1626,
      "elec": 1627,
      "AS": 1628,
      "ĠpossÃŃvel": 1629,
      "Ġimportante": 1630,
      "Ġantes": 1631,
      "Ġdom": 1632,
      "Ġmenos": 1633,
      "--": 1634,
      "Ġcham": 1635,
      "Ġvir": 1636,
      "pen": 1637,
      "Ġdel": 1638,
      "Ġdesc": 1639,
      "Ġdados": 1640,
      "Ġbom": 1641,
      "Ġmud": 1642,
      "Ġenerg": 1643,
      "Ġinform": 1644,
      "Ġ12": 1645,
      "Ġequip": 1646,
      "ket": 1647,
      "Ġsex": 1648,
      "ause": 1649,
      "ĠcomeÃ§": 1650,
      "ĠHe": 1651,
      "ĠJo": 1652,
      "Ġconsum": 1653,
      "Ġwell": 1654,
      "Ġestar": 1655,
      "ĠLe": 1656,
      "Ġdin": 1657,
      "Ġbu": 1658,
      "Ġconstru": 1659,
      "Ġsin": 1660,
      "Se": 1661,
      "ris": 1662,
      "Ġtrat": 1663,
      "Ġapresent": 1664,
      "ak": 1665,
      "Ġsistema": 1666,
      "cy": 1667,
      "Ġatual": 1668,
      "Ġve": 1669,
      "ivo": 1670,
      "hÃµes": 1671,
      "Ãºs": 1672,
      "Ġanim": 1673,
      "als": 1674,
      "Ġexam": 1675,
      "Ġtom": 1676,
      "Ġagora": 1677,
      "tamente": 1678,
      "Wh": 1679,
      "Ġprimeira": 1680,
      "Por": 1681,
      "Ġcul": 1682,
      "Ġprodutos": 1683,
      "Ġwater": 1684,
      "Ġoutro": 1685,
      "Ġfre": 1686,
      "Ġprote": 1687,
      "Ã¡tica": 1688,
      "ĠPaulo": 1689,
      "Ġhealth": 1690,
      "Ġtal": 1691,
      "ĠDes": 1692,
      "ction": 1693,
      "ll": 1694,
      "Ġeduc": 1695,
      "Ġdisso": 1696,
      "Ġbase": 1697,
      "ility": 1698,
      "Ġshould": 1699,
      "ĠPl": 1700,
      "sa": 1701,
      "issÃ£o": 1702,
      "Ġdesta": 1703,
      "Ġdesde": 1704,
      "unda": 1705,
      "ition": 1706,
      "ĠatravÃ©s": 1707,
      "Ġsuper": 1708,
      "ting": 1709,
      "Ġconte": 1710,
      "Ġsuc": 1711,
      "Ġcompar": 1712,
      "Ġexist": 1713,
      "gl": 1714,
      "uras": 1715,
      "Ġpartir": 1716,
      "Ġdeter": 1717,
      "ÃŃlia": 1718,
      "ational": 1719,
      "De": 1720,
      "En": 1721,
      "Ġcat": 1722,
      "elho": 1723,
      "Ġminha": 1724,
      "Ġget": 1725,
      "Ġmeu": 1726,
      "oca": 1727,
      "Ġdig": 1728,
      "ĠAnd": 1729,
      "Ġyears": 1730,
      "ween": 1731,
      "Ġcorre": 1732,
      "aro": 1733,
      "man": 1734,
      "Ġlugar": 1735,
      "ĠEle": 1736,
      "minist": 1737,
      "Ġhuman": 1738,
      "vir": 1739,
      "Ġbrasil": 1740,
      "Ġpens": 1741,
      "eta": 1742,
      "Ġtar": 1743,
      "ever": 1744,
      "Ġdesign": 1745,
      "Ġpot": 1746,
      "Ġmake": 1747,
      "Ġtre": 1748,
      "Ġorig": 1749,
      "Ġph": 1750,
      "pes": 1751,
      "Ġobje": 1752,
      "Ġtotal": 1753,
      "Ġintern": 1754,
      "ww": 1755,
      "ful": 1756,
      "Ãī": 1757,
      "Ġol": 1758,
      "ĠtrÃªs": 1759,
      "uss": 1760,
      "lu": 1761,
      "Ġpopul": 1762,
      "Ġvezes": 1763,
      "Ġagr": 1764,
      "Ġdefin": 1765,
      "ĠsaÃºde": 1766,
      "Ġjogo": 1767,
      "dio": 1768,
      "Ġqualidade": 1769,
      "Ġdar": 1770,
      "ĠCons": 1771,
      "aixo": 1772,
      "Ġplant": 1773,
      "emente": 1774,
      "fore": 1775,
      "round": 1776,
      "Ġcould": 1777,
      "ĠIns": 1778,
      "Ġduas": 1779,
      "Ġsm": 1780,
      "Ġestava": 1781,
      "ĠprÃ³p": 1782,
      "Ġ30": 1783,
      "ĠPre": 1784,
      "Ġesper": 1785,
      "put": 1786,
      "Ġpouco": 1787,
      "AR": 1788,
      "odo": 1789,
      "ton": 1790,
      "ions": 1791,
      "iber": 1792,
      "tec": 1793,
      "Ġbetween": 1794,
      "Ġgovern": 1795,
      "Ġens": 1796,
      "Ġpart": 1797,
      "ĠAc": 1798,
      "air": 1799,
      "Ġwhere": 1800,
      "ĠserviÃ§os": 1801,
      "ederal": 1802,
      "Ã¡veis": 1803,
      "rupo": 1804,
      "Ġempresas": 1805,
      "ticos": 1806,
      "tra": 1807,
      "Ġindiv": 1808,
      "ĠCor": 1809,
      "Ġcre": 1810,
      "Ġespa": 1811,
      "ĠnÃºmer": 1812,
      "ĠDE": 1813,
      "Ġonline": 1814,
      "clus": 1815,
      "ism": 1816,
      "Ġexemplo": 1817,
      "val": 1818,
      "ology": 1819,
      "ĠâĢĺ": 1820,
      "21": 1821,
      "Ã´m": 1822,
      "ĠtÃªm": 1823,
      "\",": 1824,
      "Ġestab": 1825,
      "IS": 1826,
      "ble": 1827,
      "ited": 1828,
      "hool": 1829,
      "Ġrefer": 1830,
      "onto": 1831,
      "Ġanal": 1832,
      "feito": 1833,
      "izar": 1834,
      "Ġend": 1835,
      "Ġpelos": 1836,
      "Ã³ri": 1837,
      "Ġprofess": 1838,
      "ĠX": 1839,
      "portun": 1840,
      "Ġredu": 1841,
      "Ġtipo": 1842,
      "Ġuso": 1843,
      "act": 1844,
      "Ġ.": 1845,
      "iel": 1846,
      "quanto": 1847,
      "Ġalgumas": 1848,
      "ero": 1849,
      "Ġenc": 1850,
      "gen": 1851,
      "tre": 1852,
      "elf": 1853,
      "Ġpequ": 1854,
      "Ġpesqu": 1855,
      "corr": 1856,
      "culo": 1857,
      "isas": 1858,
      "Ġresearch": 1859,
      "Ġrest": 1860,
      "Ġcir": 1861,
      "ects": 1862,
      "ĠPol": 1863,
      "Ġmus": 1864,
      "OR": 1865,
      "Ġapar": 1866,
      "jo": 1867,
      "Ġnome": 1868,
      "Ġtex": 1869,
      "ĠUnivers": 1870,
      "ense": 1871,
      "ĠtÃ©cn": 1872,
      "Con": 1873,
      "ĠÃ¡rea": 1874,
      "adora": 1875,
      "porte": 1876,
      "ped": 1877,
      "Ġclass": 1878,
      "osto": 1879,
      "Ġprojeto": 1880,
      "Ġalter": 1881,
      "Ġautor": 1882,
      "ĠGu": 1883,
      "ĠÃ³": 1884,
      "Ġdecis": 1885,
      "ĠmÃ¡": 1886,
      "Ġsus": 1887,
      "Ġz": 1888,
      "Ġeconom": 1889,
      "ĠMan": 1890,
      "Ġty": 1891,
      "Ġindic": 1892,
      "cas": 1893,
      "gra": 1894,
      "Ġnova": 1895,
      "cur": 1896,
      "Ġdifferent": 1897,
      "ĠCam": 1898,
      "Ġlear": 1899,
      "rom": 1900,
      "encial": 1901,
      "Ġeff": 1902,
      "30": 1903,
      "Ġjust": 1904,
      "fica": 1905,
      "ĠAmer": 1906,
      "Ġdentro": 1907,
      "ght": 1908,
      "ĠseguranÃ§a": 1909,
      "Ġear": 1910,
      "avor": 1911,
      "atro": 1912,
      "ON": 1913,
      "Ġbecause": 1914,
      "Ã©g": 1915,
      "Ġvery": 1916,
      "Ġworld": 1917,
      "ral": 1918,
      "ĠâĢĶ": 1919,
      "Ġlit": 1920,
      "ters": 1921,
      "Ġinclud": 1922,
      "ĠSa": 1923,
      "ĠRes": 1924,
      "ĠAt": 1925,
      "enÃ§Ã£o": 1926,
      "Ġmaterial": 1927,
      "Ġway": 1928,
      "Ġprepar": 1929,
      "ĠentÃ£o": 1930,
      "Ġobs": 1931,
      "usti": 1932,
      "Ġestud": 1933,
      "Ġhav": 1934,
      "Ġke": 1935,
      "ines": 1936,
      "Ġcres": 1937,
      "Ġsta": 1938,
      "Ġafter": 1939,
      "tit": 1940,
      "Ġmunic": 1941,
      "Ã£os": 1942,
      "Ġacab": 1943,
      "Ġcoloc": 1944,
      "ork": 1945,
      "Ġmade": 1946,
      "Ġvo": 1947,
      "quipe": 1948,
      "inar": 1949,
      "Ġconv": 1950,
      "ĠSer": 1951,
      "12": 1952,
      "Ġcin": 1953,
      "inh": 1954,
      "Ġsegundo": 1955,
      "ursos": 1956,
      "ware": 1957,
      "Ġprecisa": 1958,
      "Ġimpl": 1959,
      "Ġ16": 1960,
      "IN": 1961,
      "orte": 1962,
      "Ġeven": 1963,
      "Ġtecn": 1964,
      "uto": 1965,
      "ĠhistÃ³ria": 1966,
      "Ġanti": 1967,
      "Ġrecom": 1968,
      "Ġset": 1969,
      "ody": 1970,
      "adr": 1971,
      "Ġfim": 1972,
      "Ġsaber": 1973,
      "ona": 1974,
      "An": 1975,
      "Ġverdade": 1976,
      "Ġsee": 1977,
      "Ġnem": 1978,
      "tÃ£o": 1979,
      "tical": 1980,
      "Ã³l": 1981,
      "Ġlado": 1982,
      "Ġmuitas": 1983,
      "22": 1984,
      "ists": 1985,
      "ied": 1986,
      "Ġorganiz": 1987,
      "ech": 1988,
      "dia": 1989,
      "Ġevery": 1990,
      "ole": 1991,
      "uma": 1992,
      "ux": 1993,
      "ty": 1994,
      "gre": 1995,
      "Ã©rio": 1996,
      "ostas": 1997,
      "Ġsimples": 1998,
      "Ġlon": 1999,
      "ety": 2000,
      "Ġ[": 2001,
      "Ġ14": 2002,
      "Ġdeste": 2003,
      "osa": 2004,
      "Ġapr": 2005,
      "Ġempre": 2006,
      "Ġsoci": 2007,
      "IA": 2008,
      "Ġhab": 2009,
      "TA": 2010,
      "zo": 2011,
      "Ġmuitos": 2012,
      "Ġ17": 2013,
      "esa": 2014,
      "ID": 2015,
      "iÃ§Ãµes": 2016,
      "Ġquar": 2017,
      "Ġnorm": 2018,
      "Ġpessoa": 2019,
      "ustr": 2020,
      "Ġet": 2021,
      "ĠpÃºblico": 2022,
      "lex": 2023,
      "ĠtÃ£o": 2024,
      "ĠMin": 2025,
      "oria": 2026,
      "ĠnÃ³s": 2027,
      "ĠMa": 2028,
      "iva": 2029,
      "angu": 2030,
      "Ġvers": 2031,
      "Ġ11": 2032,
      "Ġart": 2033,
      "Ġpost": 2034,
      "ollow": 2035,
      "Ġacom": 2036,
      "ments": 2037,
      "IC": 2038,
      "iste": 2039,
      "Ġequipe": 2040,
      "Ġbenef": 2041,
      "Ġed": 2042,
      "Ġapo": 2043,
      "ner": 2044,
      "Ġquanto": 2045,
      "Ġcomer": 2046,
      "Ġthen": 2047,
      "Ġdocum": 2048,
      "Ġthose": 2049,
      "endimento": 2050,
      "ected": 2051,
      "osta": 2052,
      "Ġpresidente": 2053,
      "ĠEstado": 2054,
      "Ġnesta": 2055,
      "Ġtrabalh": 2056,
      "Ġdinheiro": 2057,
      "iment": 2058,
      "Ġlook": 2059,
      "oso": 2060,
      "ĠrelaÃ§Ã£o": 2061,
      "ator": 2062,
      "ĠÃºn": 2063,
      "ness": 2064,
      "timo": 2065,
      "Ġdown": 2066,
      "ĠAp": 2067,
      "ĠÃ¡gua": 2068,
      "Ġsk": 2069,
      "Ġsemana": 2070,
      "isc": 2071,
      "posta": 2072,
      "Ġsaid": 2073,
      "ĠRio": 2074,
      "Ġtechn": 2075,
      "Ġneste": 2076,
      "ĠEuro": 2077,
      "Ġcompan": 2078,
      "ward": 2079,
      "Ġimportant": 2080,
      "Ġtro": 2081,
      "ĠCo": 2082,
      "land": 2083,
      "Ġproduto": 2084,
      "Ġcall": 2085,
      "ĠFran": 2086,
      "Ġsens": 2087,
      "Ġfoc": 2088,
      "uda": 2089,
      "ĠfÃ¡": 2090,
      "Ġsoc": 2091,
      "Como": 2092,
      "Ġfound": 2093,
      "aixa": 2094,
      "Ã¡g": 2095,
      "Ġmuch": 2096,
      "50": 2097,
      "oma": 2098,
      "Ġchildren": 2099,
      "dic": 2100,
      "ĠnegÃ³": 2101,
      "los": 2102,
      "eth": 2103,
      "unto": 2104,
      "Ġfavor": 2105,
      "Ġbi": 2106,
      "ulg": 2107,
      "Ġpartic": 2108,
      "Ġclientes": 2109,
      "ĠmilhÃµes": 2110,
      "âĢĶ": 2111,
      "cri": 2112,
      "Ġacc": 2113,
      "Ġback": 2114,
      "Ãĥ": 2115,
      "ican": 2116,
      "Ġfood": 2117,
      "ange": 2118,
      "Ġshe": 2119,
      "ĠlanÃ§": 2120,
      "Ġbeing": 2121,
      "eja": 2122,
      "Ġinformation": 2123,
      "ĠvÃŃde": 2124,
      "taÃ§Ã£o": 2125,
      "ĠSu": 2126,
      "lam": 2127,
      "11": 2128,
      "Ġdiferentes": 2129,
      "Ġeach": 2130,
      "Ġread": 2131,
      "etos": 2132,
      "Ġemb": 2133,
      "Ġmal": 2134,
      "Ġsl": 2135,
      "Ġil": 2136,
      "Ġson": 2137,
      "ĠUS": 2138,
      "ĠLu": 2139,
      "cient": 2140,
      "Ġnossos": 2141,
      "ier": 2142,
      "Ġindivid": 2143,
      "NÃ£o": 2144,
      "ĠCas": 2145,
      "ares": 2146,
      "ĠperÃŃ": 2147,
      "Ġrelacion": 2148,
      "ĠnÃºmero": 2149,
      "Ġinv": 2150,
      "atura": 2151,
      "Ġnatural": 2152,
      "Ġcria": 2153,
      "Ġadv": 2154,
      "ĠComo": 2155,
      "tional": 2156,
      "Ġarti": 2157,
      "//": 2158,
      "Ġlife": 2159,
      "ĠserviÃ§o": 2160,
      "ds": 2161,
      "bs": 2162,
      "Ġaplic": 2163,
      "Ġpas": 2164,
      "tle": 2165,
      "Ġconhe": 2166,
      "Ġ100": 2167,
      "ĠIm": 2168,
      "Ġpat": 2169,
      "ques": 2170,
      "Ġexec": 2171,
      "Ġgoverno": 2172,
      "Ġpromo": 2173,
      "unca": 2174,
      "Ġlead": 2175,
      "ĠCol": 2176,
      "reg": 2177,
      "ĠSec": 2178,
      "ges": 2179,
      "Ġcheg": 2180,
      "Ġusar": 2181,
      "ende": 2182,
      "cionais": 2183,
      "Ã¡p": 2184,
      "ĠmÃºs": 2185,
      "uais": 2186,
      "ĠBar": 2187,
      "osp": 2188,
      "Ġhoras": 2189,
      "Ġcapac": 2190,
      "Ġstor": 2191,
      "kes": 2192,
      "Ġgeral": 2193,
      "Ġacompan": 2194,
      "ute": 2195,
      "ides": 2196,
      "ĠNov": 2197,
      "Ġrepresent": 2198,
      "Ġregist": 2199,
      "ĠOr": 2200,
      "ola": 2201,
      "Ġgrupo": 2202,
      "ingu": 2203,
      "ather": 2204,
      "otos": 2205,
      "Ġprop": 2206,
      "Ġduring": 2207,
      "icial": 2208,
      "Ġlig": 2209,
      "Ġ,": 2210,
      "Ġlevel": 2211,
      "Na": 2212,
      "Ġsegunda": 2213,
      "ĠTr": 2214,
      "ĠWe": 2215,
      "Ġ13": 2216,
      "Ġstudents": 2217,
      "atÃ©g": 2218,
      "Ġinstitu": 2219,
      "Ġprograma": 2220,
      "ociaÃ§Ã£o": 2221,
      "Ġnada": 2222,
      "Ġmos": 2223,
      "icul": 2224,
      "Ġficar": 2225,
      "Ġdoes": 2226,
      "Ġconce": 2227,
      "gn": 2228,
      "ĠYou": 2229,
      "Ġques": 2230,
      "Ġmelhores": 2231,
      "Ġ199": 2232,
      "ved": 2233,
      "Ġforn": 2234,
      "imes": 2235,
      "Ġstudy": 2236,
      "ĠEl": 2237,
      "gress": 2238,
      "alizaÃ§Ã£o": 2239,
      "viron": 2240,
      "Ġown": 2241,
      "ĠOn": 2242,
      "get": 2243,
      "Ġca": 2244,
      "ĠVocÃª": 2245,
      "Ġaval": 2246,
      "ional": 2247,
      "ivil": 2248,
      "edi": 2249,
      "ÃŃcia": 2250,
      "Ġpress": 2251,
      "Ġusu": 2252,
      "Ġinteress": 2253,
      "Ġacesso": 2254,
      "Ġaplica": 2255,
      "://": 2256,
      "ĠlÃ¡": 2257,
      "eno": 2258,
      "AD": 2259,
      "Ġgood": 2260,
      "ĠThey": 2261,
      "Ġfollow": 2262,
      "Ġtraz": 2263,
      "Ġdetermin": 2264,
      "hip": 2265,
      "inhos": 2266,
      "Ġactiv": 2267,
      "ĠQ": 2268,
      "Ġrespon": 2269,
      "Ġobjetivo": 2270,
      "bra": 2271,
      "Ġenquanto": 2272,
      "Ãĩ": 2273,
      "Ġdever": 2274,
      "ontos": 2275,
      "ĠIf": 2276,
      "Ġsame": 2277,
      "Ġaber": 2278,
      "ĠAlÃ©m": 2279,
      "Ġmodel": 2280,
      "ĠexperiÃªncia": 2281,
      "vo": 2282,
      "ede": 2283,
      "Ġtinha": 2284,
      "Ġfind": 2285,
      "utos": 2286,
      "ama": 2287,
      "ĠespaÃ§o": 2288,
      "eles": 2289,
      "Ġalun": 2290,
      "Ġoutra": 2291,
      "the": 2292,
      "Ġcomun": 2293,
      "ĠDeus": 2294,
      "hes": 2295,
      "terior": 2296,
      "ĠSeg": 2297,
      "ipal": 2298,
      "Ġcuid": 2299,
      "ended": 2300,
      "Ġquais": 2301,
      "ize": 2302,
      "cimento": 2303,
      "anda": 2304,
      "ĠregiÃ£o": 2305,
      "ÃĥO": 2306,
      "iÃªncia": 2307,
      "Ġsido": 2308,
      "pens": 2309,
      "tanto": 2310,
      "ries": 2311,
      "TE": 2312,
      "abilidade": 2313,
      "âĢĵ": 2314,
      "ĠBo": 2315,
      "Ġgre": 2316,
      "ock": 2317,
      "atu": 2318,
      "ices": 2319,
      "Ġ&": 2320,
      "Ġur": 2321,
      "Ġtanto": 2322,
      "Ġboa": 2323,
      "Ġcontrol": 2324,
      "Ġder": 2325,
      "Ġdesenvolvimento": 2326,
      "ĠPer": 2327,
      "Ġjogos": 2328,
      "itura": 2329,
      "AN": 2330,
      "rada": 2331,
      "rir": 2332,
      "ret": 2333,
      "18": 2334,
      "Ġalgo": 2335,
      "Ġinde": 2336,
      "Ġchar": 2337,
      "ĠcrianÃ§as": 2338,
      "Ġusing": 2339,
      "ĠfamÃŃlia": 2340,
      "olÃ³g": 2341,
      "Ġboth": 2342,
      "Ġpriv": 2343,
      "Ġshow": 2344,
      "Ġ/": 2345,
      "ĠReg": 2346,
      "ĠAg": 2347,
      "stand": 2348,
      "iliar": 2349,
      "ĠHow": 2350,
      "unci": 2351,
      "maz": 2352,
      "Ġcommun": 2353,
      "Ġdispos": 2354,
      "Ġblo": 2355,
      "Ġpap": 2356,
      "ential": 2357,
      "atis": 2358,
      "Ġcorpo": 2359,
      "ature": 2360,
      "Ġcost": 2361,
      "Ġschool": 2362,
      "ĠserÃ£o": 2363,
      "Pro": 2364,
      "ane": 2365,
      "Ġgente": 2366,
      "ĠproduÃ§Ã£o": 2367,
      "Ġproblemas": 2368,
      "Ġcomput": 2369,
      "Ġdise": 2370,
      "ode": 2371,
      "ash": 2372,
      "led": 2373,
      "rito": 2374,
      "Ġparticular": 2375,
      "ĠconteÃº": 2376,
      "AL": 2377,
      "Ġreceber": 2378,
      "uÃŃ": 2379,
      "Ġtreat": 2380,
      "ÃŃcios": 2381,
      "igos": 2382,
      "Ġmy": 2383,
      "ĠRo": 2384,
      "tido": 2385,
      "Ġresol": 2386,
      "ouse": 2387,
      "Ġindividual": 2388,
      "avam": 2389,
      "Ġef": 2390,
      "Ġinstal": 2391,
      "Ġx": 2392,
      "tics": 2393,
      "Ġrecon": 2394,
      "Ġfeito": 2395,
      "iver": 2396,
      "Ġprincipais": 2397,
      "Ġtake": 2398,
      "ĠTer": 2399,
      "Ġadminist": 2400,
      "Ġmeses": 2401,
      "itam": 2402,
      "vironment": 2403,
      "ible": 2404,
      "Ġoportun": 2405,
      "Ġsou": 2406,
      "\".": 2407,
      "Ġ24": 2408,
      "Ġprofissionais": 2409,
      "ember": 2410,
      "ron": 2411,
      "aneiro": 2412,
      "Ġdon": 2413,
      "culos": 2414,
      "Ġbefore": 2415,
      "ÃŃm": 2416,
      "Ġsmall": 2417,
      "Ġcoisas": 2418,
      "Ġgroup": 2419,
      "RE": 2420,
      "Ġmaneira": 2421,
      "Ġmesma": 2422,
      "Ã©rie": 2423,
      "Ġfez": 2424,
      "Ġrem": 2425,
      "Ġoff": 2426,
      "Ġnunca": 2427,
      "cre": 2428,
      "Ġ|": 2429,
      "Ġoften": 2430,
      "Ġsociais": 2431,
      "Ġfica": 2432,
      "Ãºn": 2433,
      "Ġadd": 2434,
      "ĠCont": 2435,
      "ĠUm": 2436,
      "ĠestratÃ©g": 2437,
      "Ġdele": 2438,
      "omen": 2439,
      "Ġmens": 2440,
      "andid": 2441,
      "gal": 2442,
      "Ġnovos": 2443,
      "Ġdescon": 2444,
      "Ġajudar": 2445,
      "Ġnenh": 2446,
      "ection": 2447,
      "iga": 2448,
      "Ġarqu": 2449,
      "ĠCan": 2450,
      "Ġbody": 2451,
      "ĠperÃŃodo": 2452,
      "ĠFederal": 2453,
      "ĠaÃ§Ãµes": 2454,
      "Ġless": 2455,
      "OM": 2456,
      "Ġappro": 2457,
      "Ġgrandes": 2458,
      "inos": 2459,
      "Ġentanto": 2460,
      "Ġmarket": 2461,
      "Ġhora": 2462,
      "Ġremo": 2463,
      "ently": 2464,
      "ually": 2465,
      "ÃŃpio": 2466,
      "Ġevento": 2467,
      "Ġran": 2468,
      "Ġjov": 2469,
      "Ġ50": 2470,
      "ĠvÃ¡rios": 2471,
      "ĠMunic": 2472,
      "Ġdecl": 2473,
      "Ġjorn": 2474,
      "ats": 2475,
      "Ġconvers": 2476,
      "Ġpower": 2477,
      "ĠinÃŃcio": 2478,
      "Ġtax": 2479,
      "ort": 2480,
      "ets": 2481,
      "gens": 2482,
      "Ġexper": 2483,
      "eti": 2484,
      "Ġproblema": 2485,
      "Ġi": 2486,
      "Ġencontrar": 2487,
      "Ġwhile": 2488,
      "Ġday": 2489,
      "lobal": 2490,
      "book": 2491,
      "ÃŃt": 2492,
      "inaÃ§Ã£o": 2493,
      "ues": 2494,
      "Ġmostr": 2495,
      "soci": 2496,
      "eceu": 2497,
      "ĠBl": 2498,
      "ĠFl": 2499,
      "inta": 2500,
      "Ġsever": 2501,
      "ĠDire": 2502,
      "jam": 2503,
      "entemente": 2504,
      "ea": 2505,
      "ĠPortu": 2506,
      "Ġrespe": 2507,
      "tual": 2508,
      "Ġatividades": 2509,
      "Ġpopular": 2510,
      "vista": 2511,
      "Ġcorr": 2512,
      "ull": 2513,
      "Ġliber": 2514,
      "Ġdevem": 2515,
      "Ġ'": 2516,
      "Ġrecursos": 2517,
      "rado": 2518,
      "Ġaround": 2519,
      "Ġinflu": 2520,
      "Ġinterna": 2521,
      "Ġ25": 2522,
      "till": 2523,
      "ume": 2524,
      "Ġcontato": 2525,
      "ics": 2526,
      "15": 2527,
      "emia": 2528,
      "gest": 2529,
      "TO": 2530,
      "ished": 2531,
      "Ġnow": 2532,
      "Ġviol": 2533,
      ".\"": 2534,
      "ĠNe": 2535,
      "Ġtemper": 2536,
      "ĠCent": 2537,
      "Ã³d": 2538,
      "Ġfrequ": 2539,
      "Ġagain": 2540,
      "inhas": 2541,
      "Ġnumber": 2542,
      "way": 2543,
      "Ġpelas": 2544,
      "uros": 2545,
      "ands": 2546,
      "Ġdireito": 2547,
      "Ġmodo": 2548,
      "Ġvem": 2549,
      "Ġfacil": 2550,
      "ĠAf": 2551,
      "Ġcoisa": 2552,
      "Ġmulheres": 2553,
      "imo": 2554,
      "ilo": 2555,
      "Ġteve": 2556,
      "Ġfora": 2557,
      "ĠFo": 2558,
      "atal": 2559,
      "timos": 2560,
      "ants": 2561,
      "Ġbra": 2562,
      "Ġgrow": 2563,
      "itaÃ§Ã£o": 2564,
      "Ġlongo": 2565,
      "ube": 2566,
      "ĠEu": 2567,
      "mas": 2568,
      "Ġprofissional": 2569,
      "ones": 2570,
      "Ġcoun": 2571,
      "ciais": 2572,
      "Ġtenha": 2573,
      "Ġafirm": 2574,
      "Ġmass": 2575,
      "....": 2576,
      "Um": 2577,
      "Ġreun": 2578,
      "Ġdid": 2579,
      "Ġmain": 2580,
      "Ã¡b": 2581,
      "cha": 2582,
      "utura": 2583,
      "Ġvolta": 2584,
      "ulas": 2585,
      "!!": 2586,
      "eng": 2587,
      "Ġpontos": 2588,
      "rim": 2589,
      "Ġsolu": 2590,
      "Ġeng": 2591,
      "ury": 2592,
      "Ġperce": 2593,
      "ĠnecessÃ¡rio": 2594,
      "Ġven": 2595,
      "riz": 2596,
      "Ġrep": 2597,
      "ĠsituaÃ§Ã£o": 2598,
      "aca": 2599,
      "ik": 2600,
      "Ġsignifica": 2601,
      "ĠrÃ¡p": 2602,
      "ĠvÃ£o": 2603,
      "ĠopÃ§Ãµes": 2604,
      "Ġobj": 2605,
      "eliz": 2606,
      "Ġfinance": 2607,
      "Ġhomem": 2608,
      "ites": 2609,
      "Ġcerca": 2610,
      "ars": 2611,
      "Ġcommon": 2612,
      "Ġobserv": 2613,
      "Ġexpress": 2614,
      "eu": 2615,
      "ĠRec": 2616,
      "hÃ£": 2617,
      "This": 2618,
      "ically": 2619,
      "Ġbol": 2620,
      "Ġrele": 2621,
      "ress": 2622,
      "ĠmÃªs": 2623,
      "Ġamor": 2624,
      "Ġimag": 2625,
      "ĠaÃ§Ã£o": 2626,
      "ned": 2627,
      "plica": 2628,
      "Ġcurso": 2629,
      "Ġplay": 2630,
      "Ex": 2631,
      "Ġprincipal": 2632,
      "ĠInter": 2633,
      "ences": 2634,
      "Ġcasos": 2635,
      "Ġthree": 2636,
      "Ġbast": 2637,
      "Ġambiente": 2638,
      "Ġponto": 2639,
      "Ġmarca": 2640,
      "Ġtemos": 2641,
      ",âĢĿ": 2642,
      "gun": 2643,
      "Ã³n": 2644,
      "ĠNew": 2645,
      "Ġabs": 2646,
      "Ġmust": 2647,
      "ĠNacional": 2648,
      "Ġtri": 2649,
      "Ġcell": 2650,
      "ĠpreÃ§o": 2651,
      "iness": 2652,
      "Ġemo": 2653,
      "Ġgreat": 2654,
      "ificar": 2655,
      "Ġcle": 2656,
      "ply": 2657,
      "Ġret": 2658,
      "Ġcomunic": 2659,
      "16": 2660,
      "ĠBut": 2661,
      "ĠIsso": 2662,
      "Ġartigo": 2663,
      "Ġpossui": 2664,
      "ificaÃ§Ã£o": 2665,
      "ene": 2666,
      "Ġatu": 2667,
      "Ġcriar": 2668,
      "Ġsubs": 2669,
      "Ġalta": 2670,
      "ames": 2671,
      "tem": 2672,
      "Ġig": 2673,
      "Ġsupport": 2674,
      "bol": 2675,
      "otor": 2676,
      "Ġmemb": 2677,
      "13": 2678,
      "Ġperf": 2679,
      "Ġste": 2680,
      "rus": 2681,
      "Ġ...": 2682,
      "Ġcha": 2683,
      "Ġquanti": 2684,
      "Ġchegar": 2685,
      "Ġtend": 2686,
      ".,": 2687,
      "Ġresultados": 2688,
      "anos": 2689,
      "atÃ³rio": 2690,
      "ium": 2691,
      "Ġplata": 2692,
      "Ġenvi": 2693,
      "Ġcandid": 2694,
      "Ġquase": 2695,
      "ĠLa": 2696,
      "Ġnoite": 2697,
      "Ġvend": 2698,
      "ĠpÃ¡g": 2699,
      "rop": 2700,
      "ilar": 2701,
      "ined": 2702,
      "Ġgl": 2703,
      "Ġdizer": 2704,
      "Ġsucesso": 2705,
      "Ġmanter": 2706,
      "Ġbuild": 2707,
      "ĠTo": 2708,
      "ĠfÃ¡cil": 2709,
      "Ġexample": 2710,
      "ospital": 2711,
      "Ġhot": 2712,
      "plic": 2713,
      "dom": 2714,
      "Ġrede": 2715,
      "ĠGer": 2716,
      "Ġfundam": 2717,
      "Ġimpro": 2718,
      "antos": 2719,
      "Des": 2720,
      "part": 2721,
      "Ġestado": 2722,
      "Ġeas": 2723,
      "cle": 2724,
      "Ġacess": 2725,
      "Ġallow": 2726,
      "ĠvÃ¡rias": 2727,
      "Ġgiv": 2728,
      "ĠVer": 2729,
      "RO": 2730,
      "Ġgas": 2731,
      "Ġade": 2732,
      "Ġdepend": 2733,
      "Ġdez": 2734,
      "Ġfrente": 2735,
      "Ġps": 2736,
      "Ġincluding": 2737,
      "els": 2738,
      "Ġunderstand": 2739,
      "ensÃ£o": 2740,
      "Ġcoll": 2741,
      "Ġesses": 2742,
      "Ã³p": 2743,
      "Ġdim": 2744,
      "Ġpalav": 2745,
      "ids": 2746,
      "Ġred": 2747,
      "ude": 2748,
      "ivos": 2749,
      "Ġrad": 2750,
      "ĠfÃŃs": 2751,
      "Ġassoci": 2752,
      "Est": 2753,
      "mail": 2754,
      "fico": 2755,
      "17": 2756,
      "ĠMed": 2757,
      "Ġsoft": 2758,
      "Ġid": 2759,
      "Ġtip": 2760,
      "Ġnovas": 2761,
      "Ġdetal": 2762,
      "Ġcliente": 2763,
      "emas": 2764,
      "ĠThere": 2765,
      "Ġpropor": 2766,
      "Ġquatro": 2767,
      "onst": 2768,
      "fo": 2769,
      "Ġbran": 2770,
      "Ġtempor": 2771,
      "ficial": 2772,
      "Ġabaixo": 2773,
      "ila": 2774,
      "ĠUma": 2775,
      "ĠTra": 2776,
      "Ġampl": 2777,
      "Ġmag": 2778,
      "tou": 2779,
      "eram": 2780,
      "Ġreport": 2781,
      "ĠnÃŃvel": 2782,
      "ances": 2783,
      "Ap": 2784,
      "tors": 2785,
      "ĠprÃ³ximo": 2786,
      "Ġnuma": 2787,
      "Ġfar": 2788,
      "Ġfra": 2789,
      "Ġgost": 2790,
      "fia": 2791,
      "Ġcour": 2792,
      "ption": 2793,
      "Ãºv": 2794,
      "ĠterÃ¡": 2795,
      "ĠpoderÃ¡": 2796,
      "Ġhim": 2797,
      "ining": 2798,
      "ĠsÃ©rie": 2799,
      "Ġbro": 2800,
      "Ġword": 2801,
      "Ġrap": 2802,
      "asse": 2803,
      "Ġdesej": 2804,
      "Ġstill": 2805,
      "Ġajuda": 2806,
      "Ġdess": 2807,
      "ĠvÃŃdeo": 2808,
      "zir": 2809,
      "Ġbre": 2810,
      "izado": 2811,
      "Ġvac": 2812,
      "Ġincreas": 2813,
      "Ġintegr": 2814,
      "idores": 2815,
      "rum": 2816,
      "ĠlÃŃ": 2817,
      "Ġsob": 2818,
      "retar": 2819,
      "ogra": 2820,
      "ĠSaÃºde": 2821,
      "mar": 2822,
      "imos": 2823,
      "Ġenvironment": 2824,
      "14": 2825,
      "ĠÂ": 2826,
      "Ġstart": 2827,
      "Ġtratamento": 2828,
      "Ġbusca": 2829,
      "Ġbook": 2830,
      "ail": 2831,
      "Ġconj": 2832,
      "Ã£e": 2833,
      "ze": 2834,
      "Ġthough": 2835,
      "Ġterm": 2836,
      "usto": 2837,
      "Ġpercent": 2838,
      "Ġcust": 2839,
      "Ġrequi": 2840,
      "ĠSc": 2841,
      "ecem": 2842,
      "urar": 2843,
      "Ġproced": 2844,
      "Ġcapital": 2845,
      "Ġperform": 2846,
      "Ġtel": 2847,
      "Ġcomprar": 2848,
      "Ġmic": 2849,
      "MA": 2850,
      "Ġhome": 2851,
      "Ġmulti": 2852,
      "Ã³rios": 2853,
      "Ġden": 2854,
      "Ġetc": 2855,
      "Re": 2856,
      "Ġexclus": 2857,
      "Ġcaracter": 2858,
      "ying": 2859,
      "Ġtecnologia": 2860,
      "Ġbastante": 2861,
      "Ġado": 2862,
      "Ġ2019": 2863,
      "Ġinvesti": 2864,
      "Ġcoment": 2865,
      "Ġmaioria": 2866,
      "Ġfoto": 2867,
      "Ġsignific": 2868,
      "ping": 2869,
      "den": 2870,
      "Ġcalled": 2871,
      "Ġdeixar": 2872,
      "Ġfato": 2873,
      "of": 2874,
      "Ġpers": 2875,
      "Ġbal": 2876,
      "Ġseguin": 2877,
      "ultural": 2878,
      "Ġfalar": 2879,
      "ĠPres": 2880,
      "Ġextra": 2881,
      "Ġmodelo": 2882,
      "ency": 2883,
      "ĠGran": 2884,
      "ĠBr": 2885,
      "Ġcurr": 2886,
      "ĠEduc": 2887,
      "Ġoferece": 2888,
      "ĠconteÃºdo": 2889,
      "Ġpassado": 2890,
      "ĠSal": 2891,
      "uta": 2892,
      "omes": 2893,
      "Ġlemb": 2894,
      "Ġknown": 2895,
      "ĠprÃ³prio": 2896,
      "Ġdiscuss": 2897,
      "Ġwrit": 2898,
      "Ġpaci": 2899,
      "ĠpopulaÃ§Ã£o": 2900,
      "jor": 2901,
      "ĠSou": 2902,
      "ĠSil": 2903,
      "iÃµes": 2904,
      "ectr": 2905,
      "Ġpergun": 2906,
      "ham": 2907,
      "ĠMic": 2908,
      "Ġferram": 2909,
      "ĠIntern": 2910,
      "Ġseria": 2911,
      "Ġadicion": 2912,
      "VocÃª": 2913,
      "gas": 2914,
      "ustiÃ§a": 2915,
      "ĠMo": 2916,
      "__": 2917,
      "Ġata": 2918,
      "istÃ©rio": 2919,
      "Ġmight": 2920,
      "Ġtransform": 2921,
      "ĠdÃºv": 2922,
      "ources": 2923,
      "Ġwant": 2924,
      "Ġdigital": 2925,
      "Ġpapel": 2926,
      "Ġmem": 2927,
      "Ġnut": 2928,
      "perior": 2929,
      "ĠdÃ¡": 2930,
      "Ġtransm": 2931,
      "Ġdecid": 2932,
      "Ġfilme": 2933,
      "Ġgratu": 2934,
      "ulho": 2935,
      "Ġalunos": 2936,
      "ago": 2937,
      "Ġinternet": 2938,
      "Ġexpos": 2939,
      "Ġexig": 2940,
      "Ġregul": 2941,
      "ĠopÃ§Ã£o": 2942,
      "ately": 2943,
      "panha": 2944,
      "rÃ¡": 2945,
      "Ġprac": 2946,
      "Ġessas": 2947,
      "Ġchange": 2948,
      "Ġfew": 2949,
      "Ġpesquisa": 2950,
      "Ġcum": 2951,
      "ults": 2952,
      "oms": 2953,
      "reira": 2954,
      "Ġdesco": 2955,
      "Ġsabe": 2956,
      "Ġtoo": 2957,
      "urso": 2958,
      "Ġcontribu": 2959,
      "Ġ2020": 2960,
      "ious": 2961,
      "ĠgestÃ£o": 2962,
      "Ġprot": 2963,
      "Ġprefer": 2964,
      "Uma": 2965,
      "Ġvisual": 2966,
      "Ġnature": 2967,
      "Ġestim": 2968,
      "iado": 2969,
      "icar": 2970,
      "Ġha": 2971,
      "Ġaff": 2972,
      "Ġiss": 2973,
      "istÃªncia": 2974,
      "uper": 2975,
      "Ġdisease": 2976,
      "Ġminutos": 2977,
      "Ġdesse": 2978,
      "ĠThese": 2979,
      "Ġpropri": 2980,
      "Ġrequ": 2981,
      "Ġredes": 2982,
      "ĠBe": 2983,
      "Ġep": 2984,
      "Ġresultado": 2985,
      "Ġapoio": 2986,
      "ason": 2987,
      "ording": 2988,
      "ogle": 2989,
      "Ġstate": 2990,
      "Ġplace": 2991,
      "inc": 2992,
      "Ġenergy": 2993,
      "thing": 2994,
      "ĠOl": 2995,
      "Ġelem": 2996,
      "Ġdessa": 2997,
      "Ġgener": 2998,
      "cience": 2999,
      "thers": 3000,
      "Ġpassar": 3001,
      "Ġlet": 3002,
      "ĠPe": 3003,
      "Ġcompre": 3004,
      "tific": 3005,
      "Ġhtt": 3006,
      "Ġadequ": 3007,
      "ĠÃ¡reas": 3008,
      "ĠpolÃŃtica": 3009,
      "porta": 3010,
      "II": 3011,
      "iod": 3012,
      "Ã¡lise": 3013,
      "au": 3014,
      "vio": 3015,
      "dem": 3016,
      "ĠcondiÃ§Ãµes": 3017,
      "Ġinclus": 3018,
      "anc": 3019,
      "Ġexpec": 3020,
      "Ġrevel": 3021,
      "Ġchang": 3022,
      "ĠEurope": 3023,
      "ĠCal": 3024,
      "Ġright": 3025,
      "Ġcarro": 3026,
      "Ġconfirm": 3027,
      "Ġtop": 3028,
      "Ġrisco": 3029,
      "Ġbest": 3030,
      "ĠveÃŃ": 3031,
      "hor": 3032,
      "Ġelas": 3033,
      "It": 3034,
      "Ġmedic": 3035,
      "TI": 3036,
      "diÃ§Ã£o": 3037,
      "Ġpagamento": 3038,
      "tiz": 3039,
      "Ġterce": 3040,
      "Ġinvestig": 3041,
      "Ġvag": 3042,
      "ĠpaÃŃses": 3043,
      "Ġair": 3044,
      "Ġmill": 3045,
      "Ġglobal": 3046,
      "urn": 3047,
      "ibilidade": 3048,
      "Ġpreoc": 3049,
      "Ġpreciso": 3050,
      "abric": 3051,
      "Ġcateg": 3052,
      "ĠJos": 3053,
      "Ġmarc": 3054,
      "Ġdevelopment": 3055,
      "iram": 3056,
      "Ġ40": 3057,
      "Ġobrig": 3058,
      "Ġdemonst": 3059,
      "Ġwithout": 3060,
      "Ġfalta": 3061,
      "Ġpati": 3062,
      "ĠgrÃ¡": 3063,
      "Ġdesem": 3064,
      "ĠprÃ³pria": 3065,
      "odos": 3066,
      "Ġ22": 3067,
      "Ġren": 3068,
      "mes": 3069,
      "Ġentrar": 3070,
      "Ġpresente": 3071,
      "Ġarea": 3072,
      "Ġspe": 3073,
      "ĠEste": 3074,
      "ĠMunicipal": 3075,
      "Ġartic": 3076,
      "Ġpresent": 3077,
      "ĠAmerican": 3078,
      "Ġacred": 3079,
      "tividade": 3080,
      "Ġdeb": 3081,
      "Ġlivro": 3082,
      "Ã©l": 3083,
      "Ġrealizar": 3084,
      "Ġpermite": 3085,
      "ah": 3086,
      "Ġpolic": 3087,
      "vail": 3088,
      "Ġ21": 3089,
      "AM": 3090,
      "elas": 3091,
      "gin": 3092,
      "Ġcompeti": 3093,
      "Ġgrav": 3094,
      "ĠÃģ": 3095,
      "Ġefe": 3096,
      "Ġlista": 3097,
      "Ġgol": 3098,
      "Ġlist": 3099,
      "ecimento": 3100,
      "Ġgeneral": 3101,
      "Ġphys": 3102,
      "ĠSul": 3103,
      "Ġmeas": 3104,
      "Ġenergia": 3105,
      "ĠatenÃ§Ã£o": 3106,
      "Ġperman": 3107,
      "Ġprova": 3108,
      "200": 3109,
      "Seg": 3110,
      "Ġatendimento": 3111,
      "Ġmuita": 3112,
      "Ġimpac": 3113,
      "Ġwithin": 3114,
      "Ġlarge": 3115,
      "less": 3116,
      "ĠmÃ©": 3117,
      "Ġenvolv": 3118,
      "ĠPal": 3119,
      "ield": 3120,
      "Ġtrabalhar": 3121,
      "gs": 3122,
      "ĠUniversity": 3123,
      "oles": 3124,
      "Ġaprov": 3125,
      "Ġquestion": 3126,
      "Ġreceb": 3127,
      "ties": 3128,
      "Ġpen": 3129,
      "EM": 3130,
      "try": 3131,
      "corre": 3132,
      "Ġsepar": 3133,
      "Ġatra": 3134,
      "Ġprincipalmente": 3135,
      "face": 3136,
      "Ġlight": 3137,
      "Ġsociedade": 3138,
      "ross": 3139,
      "Ġcomplex": 3140,
      "eda": 3141,
      "ifest": 3142,
      "Ġsym": 3143,
      "orth": 3144,
      "Ġestil": 3145,
      "Ġalguma": 3146,
      "Ġestre": 3147,
      "gue": 3148,
      "Ġdesaf": 3149,
      "Ġprime": 3150,
      "ways": 3151,
      "'t": 3152,
      "ĠGover": 3153,
      "Ġrecebe": 3154,
      "urante": 3155,
      "Ġaud": 3156,
      "80": 3157,
      "Ġstand": 3158,
      "omas": 3159,
      "ĠSem": 3160,
      "Ġviv": 3161,
      "Ġhy": 3162,
      "ĠdifÃŃ": 3163,
      "xt": 3164,
      "Ġhand": 3165,
      "Ġlhe": 3166,
      "Ġdistribu": 3167,
      "Ġindepend": 3168,
      "uel": 3169,
      "top": 3170,
      "Ġappe": 3171,
      "Ġinclude": 3172,
      "Ġpubl": 3173,
      "Ġprest": 3174,
      "pir": 3175,
      "work": 3176,
      "Ġcount": 3177,
      "Ġcru": 3178,
      "Ġblood": 3179,
      "Ġprevent": 3180,
      "Ġsai": 3181,
      "AlÃ©m": 3182,
      "ÃŃsticas": 3183,
      "Ġdiversos": 3184,
      "ĠprÃ¡tica": 3185,
      "Ġmeth": 3186,
      "Ġlow": 3187,
      "Ġgaran": 3188,
      "aman": 3189,
      "ized": 3190,
      "----": 3191,
      "Ġesti": 3192,
      "Ġhavia": 3193,
      "ĠdecisÃ£o": 3194,
      "Ġautom": 3195,
      "ination": 3196,
      "fort": 3197,
      "EC": 3198,
      "Ġocorr": 3199,
      "Ġdiversas": 3200,
      "Ġlinha": 3201,
      "Ġbot": 3202,
      "Ġalc": 3203,
      "ĠDo": 3204,
      "Ġlater": 3205,
      "Ġaddi": 3206,
      "Ġprazo": 3207,
      "timento": 3208,
      "Ġcausa": 3209,
      "eix": 3210,
      "ibil": 3211,
      "Ġshar": 3212,
      "ken": 3213,
      "Ġfiz": 3214,
      "ĠmÃºsica": 3215,
      "Ġrealmente": 3216,
      "Ġblog": 3217,
      "Ġcho": 3218,
      "Ġpele": 3219,
      "Ġsen": 3220,
      "ĠEd": 3221,
      "idor": 3222,
      "Ġdivulg": 3223,
      "Ġanother": 3224,
      "Ã¢mara": 3225,
      "idÃªncia": 3226,
      "Ġcontrole": 3227,
      "ĠprÃ©": 3228,
      "Ġada": 3229,
      "ource": 3230,
      "Ġexcel": 3231,
      "Ġcompr": 3232,
      "Ġpreocup": 3233,
      "atar": 3234,
      "Ġlogo": 3235,
      "iana": 3236,
      "Ġwomen": 3237,
      "cular": 3238,
      "Ġ2018": 3239,
      "Ġbeb": 3240,
      "itivo": 3241,
      "60": 3242,
      "Ã¡ticas": 3243,
      "ills": 3244,
      "Ġproper": 3245,
      "Ġrelig": 3246,
      "What": 3247,
      "Ġbetter": 3248,
      "ological": 3249,
      "Ġdireitos": 3250,
      "23": 3251,
      "Ġtor": 3252,
      "ĠInstit": 3253,
      "Ġmol": 3254,
      "Ġnecessidade": 3255,
      "Ġinterest": 3256,
      "Ġrisk": 3257,
      "Ġregular": 3258,
      "yn": 3259,
      "Ġorder": 3260,
      "Ġseguir": 3261,
      "Ã£este": 3262,
      "ĠÃºltima": 3263,
      "uring": 3264,
      "Ġace": 3265,
      "Ġsug": 3266,
      "dios": 3267,
      "US": 3268,
      "Ġans": 3269,
      "Ġnacional": 3270,
      "Ġtarde": 3271,
      "Ġarm": 3272,
      "Ġgarantir": 3273,
      "eza": 3274,
      "ĠPortugal": 3275,
      "EL": 3276,
      "osse": 3277,
      "Ġsetor": 3278,
      "Ġtiver": 3279,
      "Ġmand": 3280,
      "ased": 3281,
      "Ġimm": 3282,
      "ĠinformaÃ§Ã£o": 3283,
      "Ġimpress": 3284,
      "Mas": 3285,
      "org": 3286,
      "row": 3287,
      "RI": 3288,
      "ages": 3289,
      "Ġold": 3290,
      "ĠCap": 3291,
      "ution": 3292,
      "ĠMu": 3293,
      "tivamente": 3294,
      "Ġcultura": 3295,
      "Ġcompra": 3296,
      "Ġbecome": 3297,
      "anas": 3298,
      "PA": 3299,
      "ike": 3300,
      "Ġmajor": 3301,
      "Ġpain": 3302,
      "Ġevol": 3303,
      "Ġresta": 3304,
      "ek": 3305,
      "Ġvisit": 3306,
      "ÃŃda": 3307,
      "Ġelectr": 3308,
      "bon": 3309,
      "ĠirÃ¡": 3310,
      "Ã³rias": 3311,
      "Ġsi": 3312,
      "Ġale": 3313,
      "Ġcel": 3314,
      "Ġcare": 3315,
      "Ġcabe": 3316,
      "Ġportu": 3317,
      "ala": 3318,
      "ingo": 3319,
      "Ġconhecer": 3320,
      "Ġdri": 3321,
      "amp": 3322,
      "ebol": 3323,
      "Ġcinco": 3324,
      "jas": 3325,
      "ĠTV": 3326,
      "Ġpais": 3327,
      "Ġmim": 3328,
      "Ġfat": 3329,
      "Ġaprove": 3330,
      "Ġesqu": 3331,
      "ĠQuando": 3332,
      "ĠÃºltimo": 3333,
      "Ġficou": 3334,
      "Ġnossas": 3335,
      "ĠBan": 3336,
      "Ġcause": 3337,
      "For": 3338,
      "ĠimportÃ¢ncia": 3339,
      "ĠEstados": 3340,
      "ĠquestÃ£o": 3341,
      "Ġdevido": 3342,
      "ĠGoogle": 3343,
      "Ġefic": 3344,
      "ĠHowever": 3345,
      "ective": 3346,
      "enÃ§as": 3347,
      "ĠÃ©p": 3348,
      "abil": 3349,
      "ĠespecÃŃ": 3350,
      "ÃŃcias": 3351,
      "idad": 3352,
      "Ġmotor": 3353,
      "ĠOut": 3354,
      "visÃ£o": 3355,
      "Ġganhar": 3356,
      "Ġating": 3357,
      "via": 3358,
      "Ġtimes": 3359,
      "Ġhere": 3360,
      "Ġjornal": 3361,
      "ĠSim": 3362,
      "ĠnegÃ³cio": 3363,
      "ĠEU": 3364,
      "Ġhard": 3365,
      "ots": 3366,
      "ÃŃtulo": 3367,
      "wh": 3368,
      "ĠPh": 3369,
      "Ġlink": 3370,
      "Ġfamiliar": 3371,
      "Ġmaiores": 3372,
      "ĠAb": 3373,
      "igura": 3374,
      "Ġtenho": 3375,
      "Ġexp": 3376,
      "ogn": 3377,
      "itive": 3378,
      "Ġbil": 3379,
      "Ġprojetos": 3380,
      "Ġavail": 3381,
      "ĠJun": 3382,
      "Ġsoftware": 3383,
      "uri": 3384,
      "ĠBol": 3385,
      "Ġdra": 3386,
      "urg": 3387,
      "Ġconhecimento": 3388,
      "adamente": 3389,
      "25": 3390,
      "era": 3391,
      "Ġcompartil": 3392,
      "Ġlast": 3393,
      "las": 3394,
      "Ġhap": 3395,
      "sos": 3396,
      "Ġmilitar": 3397,
      "Ġaspec": 3398,
      "esus": 3399,
      "Ġcolor": 3400,
      "Ġcomum": 3401,
      "Ġfazendo": 3402,
      "ensa": 3403,
      "Ġprovide": 3404,
      "Ġearly": 3405,
      "24": 3406,
      "Ġ23": 3407,
      "Ġfem": 3408,
      "Ġamigos": 3409,
      "Ġvenda": 3410,
      "forme": 3411,
      "ĠAo": 3412,
      "Ġestamos": 3413,
      "gum": 3414,
      "Ġdep": 3415,
      "ĠMus": 3416,
      "vas": 3417,
      "ovo": 3418,
      "Ġpadr": 3419,
      "ĠPÃºbl": 3420,
      "Ġ$": 3421,
      "Ġperiod": 3422,
      "ĠVal": 3423,
      "Ġcapacidade": 3424,
      "Ġconcent": 3425,
      "Ġmeans": 3426,
      "ĠEngl": 3427,
      "eraÃ§Ã£o": 3428,
      "gues": 3429,
      "ocia": 3430,
      "Ġexerc": 3431,
      "Ġpossible": 3432,
      "ĠmÃ£e": 3433,
      "Ġlocaliz": 3434,
      "Ġusando": 3435,
      "Ġsentido": 3436,
      "Ġcole": 3437,
      "Ġdestac": 3438,
      "Ġminist": 3439,
      "Ġselec": 3440,
      "ĠConf": 3441,
      "Ġprovid": 3442,
      "Ġsolic": 3443,
      "ĠcomeÃ§ar": 3444,
      "ĠJosÃ©": 3445,
      "Ġplataforma": 3446,
      "Ãģ": 3447,
      "Ġacima": 3448,
      "tis": 3449,
      "che": 3450,
      "eric": 3451,
      "Ġpoint": 3452,
      "Ġnesse": 3453,
      "Ġfabric": 3454,
      "Ġalto": 3455,
      "Ġdiagn": 3456,
      "OL": 3457,
      "ye": 3458,
      "Eu": 3459,
      "cipar": 3460,
      "ĠMil": 3461,
      "antas": 3462,
      "itado": 3463,
      "ĠmanhÃ£": 3464,
      "ĠWor": 3465,
      "oper": 3466,
      "Ġcele": 3467,
      "Ġfran": 3468,
      "Ġpur": 3469,
      "ÃŃnio": 3470,
      "retaria": 3471,
      "Ġteach": 3472,
      "Ġlog": 3473,
      "ĠComm": 3474,
      "ĠUnited": 3475,
      "Ġlei": 3476,
      "ĠMor": 3477,
      "Ġtexto": 3478,
      "Ġmethod": 3479,
      "Ġparcer": 3480,
      "load": 3481,
      "Ġ60": 3482,
      "wit": 3483,
      "inado": 3484,
      "ches": 3485,
      "Ġseveral": 3486,
      "ĠpÃ¡gina": 3487,
      "undial": 3488,
      "ils": 3489,
      "Ġexiste": 3490,
      "Ġopen": 3491,
      "ns": 3492,
      "iza": 3493,
      "Ġvamos": 3494,
      "Ġmean": 3495,
      "feitura": 3496,
      "alidade": 3497,
      "ration": 3498,
      "www": 3499,
      "Ġfamily": 3500,
      "Ã³vel": 3501,
      "Ġopin": 3502,
      "Ġnega": 3503,
      "Ġevitar": 3504,
      "irma": 3505,
      "ĠPed": 3506,
      "Ġcrescimento": 3507,
      "tice": 3508,
      "ĠeducaÃ§Ã£o": 3509,
      "Ġgovernment": 3510,
      "Ġconqu": 3511,
      "Ġexc": 3512,
      "Ġcampo": 3513,
      "Ġnear": 3514,
      "Ġkeep": 3515,
      "Este": 3516,
      "Ġplac": 3517,
      "Ġemp": 3518,
      "PS": 3519,
      "guÃ©m": 3520,
      "ED": 3521,
      "Ġage": 3522,
      "Ġpand": 3523,
      "ribun": 3524,
      "Ġsays": 3525,
      "ÃĩÃĥO": 3526,
      "ili": 3527,
      "Ġtreatment": 3528,
      "Ġlevar": 3529,
      "ĠconstruÃ§Ã£o": 3530,
      "ĠWhen": 3531,
      "Ġsexta": 3532,
      "Ar": 3533,
      "Ġwar": 3534,
      "Ġunivers": 3535,
      "ĠTem": 3536,
      "Ġsecond": 3537,
      "ateg": 3538,
      "Ġjo": 3539,
      "Ġacompanh": 3540,
      "Ġestudo": 3541,
      "ving": 3542,
      "yl": 3543,
      "ĠES": 3544,
      "Ġfeel": 3545,
      "Ġfuturo": 3546,
      "Ġjunto": 3547,
      "Ġestiver": 3548,
      "Ġhistory": 3549,
      "ĠresponsÃ¡vel": 3550,
      "Ġlearning": 3551,
      "Ġable": 3552,
      "Ġobra": 3553,
      "Ġfotos": 3554,
      "ĠdisponÃŃvel": 3555,
      "Ġaumento": 3556,
      "Ġdeles": 3557,
      "Ġfundamental": 3558,
      "ĠJoÃ£o": 3559,
      "Ġnon": 3560,
      "Ġsof": 3561,
      "Ġfilho": 3562,
      "Ac": 3563,
      "onta": 3564,
      "Ã©tr": 3565,
      "Ġclaro": 3566,
      "Ġfeita": 3567,
      "Ġmodern": 3568,
      "Ġoriginal": 3569,
      "Ġimagem": 3570,
      "Ġelev": 3571,
      "arem": 3572,
      "rease": 3573,
      "etes": 3574,
      "Ġdemais": 3575,
      "Ġanunci": 3576,
      "Ġcase": 3577,
      "Ġafirmou": 3578,
      "Ġland": 3579,
      "Ġescre": 3580,
      "ĠusuÃ¡rios": 3581,
      "Ġintro": 3582,
      "ĠDi": 3583,
      "Ġdiver": 3584,
      "Ġdesenvol": 3585,
      "Ġdiferente": 3586,
      "Ġtipos": 3587,
      "Ġaccess": 3588,
      "read": 3589,
      "nos": 3590,
      "ove": 3591,
      "Ġfol": 3592,
      "ĠMinistÃ©rio": 3593,
      "Ġscient": 3594,
      "Ġagainst": 3595,
      "Ġlearn": 3596,
      "Ġoportunidade": 3597,
      "ĠSol": 3598,
      "Ġpodemos": 3599,
      "adual": 3600,
      "Ġru": 3601,
      "ĠÃºltimos": 3602,
      "Ġlangu": 3603,
      "Ġvista": 3604,
      "isÃ£o": 3605,
      "erra": 3606,
      "AC": 3607,
      "istir": 3608,
      "Ġsubst": 3609,
      "Ġsejam": 3610,
      "timas": 3611,
      "Ġ2012": 3612,
      "Ġclim": 3613,
      "Ġpermiti": 3614,
      "Ass": 3615,
      "Ġideia": 3616,
      "Ġrapid": 3617,
      "ĠDr": 3618,
      "ĠJesus": 3619,
      "Ġideal": 3620,
      "ĠCentro": 3621,
      "Ġthink": 3622,
      "Ġsing": 3623,
      "Ġthings": 3624,
      "Ã©dito": 3625,
      "Ġsay": 3626,
      "ĠanÃ¡lise": 3627,
      "ĠforÃ§a": 3628,
      "Ġrespeito": 3629,
      "Ġproduz": 3630,
      "We": 3631,
      "Ġnam": 3632,
      "Ġparticipar": 3633,
      "Ġescolher": 3634,
      "ĠformaÃ§Ã£o": 3635,
      "Ġali": 3636,
      "Ġpessoal": 3637,
      "ĠmÃ¡xim": 3638,
      "Ġ:": 3639,
      "Ġbon": 3640,
      "Ġveg": 3641,
      "Ġevent": 3642,
      "Ġsites": 3643,
      "Cl": 3644,
      "enos": 3645,
      "Ġquarta": 3646,
      "Ġareas": 3647,
      "Ġnenhum": 3648,
      "Ġrema": 3649,
      "Ġplano": 3650,
      "Ġsince": 3651,
      "ĠversÃ£o": 3652,
      "ĠChina": 3653,
      "So": 3654,
      "ĠSh": 3655,
      "Ġavailable": 3656,
      "iew": 3657,
      "Ġdisco": 3658,
      "Ġorient": 3659,
      "ĠdifÃŃcil": 3660,
      "Ġtendo": 3661,
      "Ġcontin": 3662,
      "view": 3663,
      "orar": 3664,
      "Ġsust": 3665,
      "ĠpresenÃ§a": 3666,
      "ĠDec": 3667,
      "Ġcaminho": 3668,
      "Ġconstitu": 3669,
      "Ġatividade": 3670,
      "Ġfarm": 3671,
      "Ġmant": 3672,
      "ĠÃ©poca": 3673,
      "icamente": 3674,
      "plem": 3675,
      "ticamente": 3676,
      "Ġfazem": 3677,
      "ĠProgram": 3678,
      "ĠmunicÃŃpio": 3679,
      "Ġ+": 3680,
      "mentos": 3681,
      "idence": 3682,
      "enciais": 3683,
      "ĠmÃ£o": 3684,
      "oura": 3685,
      "Ġforte": 3686,
      "Ġvalores": 3687,
      "Ġtema": 3688,
      "Ġobter": 3689,
      "ĠDis": 3690,
      "Ġjogadores": 3691,
      "gon": 3692,
      "Ġpi": 3693,
      "Ġmer": 3694,
      "Ġdificul": 3695,
      "Ġlik": 3696,
      "Ġhomens": 3697,
      "Ġsomente": 3698,
      "atas": 3699,
      "Ġoficial": 3700,
      "ĠAssim": 3701,
      "Ġtermin": 3702,
      "Ġpossa": 3703,
      "ĠpÃºblica": 3704,
      "orden": 3705,
      "Ġdedic": 3706,
      "Ġsuperior": 3707,
      "stru": 3708,
      "ament": 3709,
      "Ġentender": 3710,
      "Ġluz": 3711,
      "ĠediÃ§Ã£o": 3712,
      "Ġfur": 3713,
      "ney": 3714,
      "40": 3715,
      "ĠEla": 3716,
      "Ġlivre": 3717,
      "Ġstruc": 3718,
      "90": 3719,
      "aco": 3720,
      "Ġach": 3721,
      "Ġcolabor": 3722,
      "ĠAll": 3723,
      "bilidade": 3724,
      "ĠCÃ¢mara": 3725,
      "indows": 3726,
      "Ġcountry": 3727,
      "iano": 3728,
      "ths": 3729,
      "duÃ§Ã£o": 3730,
      "Ġrecord": 3731,
      "Ġescola": 3732,
      "Ġlic": 3733,
      "Ġalterna": 3734,
      "ril": 3735,
      "ample": 3736,
      "itando": 3737,
      "ÃŃdo": 3738,
      "ians": 3739,
      "Ġsimilar": 3740,
      "Ġserem": 3741,
      "Ġcancer": 3742,
      "Ġbat": 3743,
      "Ã¡tico": 3744,
      "Quando": 3745,
      "Ġrecuper": 3746,
      "Ġsatis": 3747,
      "ĠGe": 3748,
      "ĠcriaÃ§Ã£o": 3749,
      "Ġspecies": 3750,
      "Ġestrutura": 3751,
      "Ġgaranti": 3752,
      "ĠÃºnica": 3753,
      "Ġmedida": 3754,
      ",\"": 3755,
      "tia": 3756,
      "Ġwhe": 3757,
      "Ġenfr": 3758,
      "ĠJohn": 3759,
      "Ġproblems": 3760,
      "rÃ¡s": 3761,
      "Ġcivil": 3762,
      "vez": 3763,
      "Ġdeu": 3764,
      "istic": 3765,
      "ribut": 3766,
      "Ġcharacter": 3767,
      "Ġcomunidade": 3768,
      "tively": 3769,
      "Ġensino": 3770,
      "adu": 3771,
      "ged": 3772,
      "Ġescolha": 3773,
      "Ġnar": 3774,
      "Ã©ria": 3775,
      "ards": 3776,
      "elig": 3777,
      "Ġfollowing": 3778,
      "ulos": 3779,
      "ĠalguÃ©m": 3780,
      "ĠJaneiro": 3781,
      "uf": 3782,
      "onom": 3783,
      "Ġothers": 3784,
      "ĠMaria": 3785,
      "Ġdesempen": 3786,
      "Ġcentro": 3787,
      "Ġcerto": 3788,
      "Ġtype": 3789,
      "ĠPolÃŃcia": 3790,
      "Ġretor": 3791,
      "ÃŃstica": 3792,
      "Ġsuccess": 3793,
      "by": 3794,
      "venÃ§Ã£o": 3795,
      "ĠGod": 3796,
      "Ġconcl": 3797,
      "Ġcapaz": 3798,
      "Ġput": 3799,
      "Ġlocais": 3800,
      "Ġdeclar": 3801,
      "If": 3802,
      "Is": 3803,
      "Ġemerg": 3804,
      "ope": 3805,
      "Ġhead": 3806,
      "Ã©is": 3807,
      "Ġbased": 3808,
      "ĠdisponÃŃveis": 3809,
      "Ġfinan": 3810,
      "ĠJÃ¡": 3811,
      "ĠTe": 3812,
      "etro": 3813,
      "ĠnegÃ³cios": 3814,
      "Ġaux": 3815,
      "Ãºst": 3816,
      "Ġaumentar": 3817,
      "Ġrun": 3818,
      "ĠpreÃ§os": 3819,
      "sel": 3820,
      "Ã©rias": 3821,
      "Ġextrem": 3822,
      "berto": 3823,
      "Ġdiretor": 3824,
      "Ġraz": 3825,
      "ention": 3826,
      "Ġtir": 3827,
      "iqu": 3828,
      "Ġperder": 3829,
      "teza": 3830,
      "Ġoferec": 3831,
      "Ġbene": 3832,
      "Ġjur": 3833,
      "Ġinicia": 3834,
      "Ġmicro": 3835,
      "ĠsÃ¡b": 3836,
      "Ġinov": 3837,
      "ÃŃpios": 3838,
      "ream": 3839,
      "ĠIN": 3840,
      "Ġsaud": 3841,
      "aval": 3842,
      "Ġlevels": 3843,
      "Ġfour": 3844,
      "Ġquis": 3845,
      "dies": 3846,
      "ĠparticipaÃ§Ã£o": 3847,
      "Ġtelef": 3848,
      "ĠEsta": 3849,
      "ĠEscol": 3850,
      "Ġ2021": 3851,
      "ĠSanta": 3852,
      "Ġcertain": 3853,
      "Ġquinta": 3854,
      "acebook": 3855,
      "Ã³digo": 3856,
      "Ġdirect": 3857,
      "Ġname": 3858,
      "ĠEntre": 3859,
      "Ġnormal": 3860,
      "ĠLei": 3861,
      "imentar": 3862,
      "ĠUnidos": 3863,
      "Fo": 3864,
      "ething": 3865,
      "Ġfocus": 3866,
      "Ġdeput": 3867,
      "Ġalong": 3868,
      "Ġconn": 3869,
      "ĠProf": 3870,
      "Ġpai": 3871,
      "Ġimagens": 3872,
      "Ġprofessor": 3873,
      "Ġestilo": 3874,
      "Ġmorte": 3875,
      "Ġpasso": 3876,
      "Ġtrein": 3877,
      "ĠeconÃ´m": 3878,
      "though": 3879,
      "Ġestabelec": 3880,
      "Ġress": 3881,
      "Ġamong": 3882,
      "Ġimportantes": 3883,
      "Ġaprend": 3884,
      "ĠÃºnico": 3885,
      "ubro": 3886,
      "hÃ£o": 3887,
      "ĠorganizaÃ§Ã£o": 3888,
      "Ġfase": 3889,
      "Ġplanej": 3890,
      "tudo": 3891,
      "Ġmarketing": 3892,
      "IM": 3893,
      "ng": 3894,
      "izada": 3895,
      "Ġcoz": 3896,
      "entas": 3897,
      "Ġluc": 3898,
      "iter": 3899,
      "Ġvide": 3900,
      "Ġ2013": 3901,
      "estre": 3902,
      "Ã³veis": 3903,
      "âĢ¢": 3904,
      "atory": 3905,
      "Ġtransfer": 3906,
      "ĠPra": 3907,
      "Ġexce": 3908,
      "Ġ2022": 3909,
      "ject": 3910,
      "Ġmont": 3911,
      "Ġpossibilidade": 3912,
      "Ġconseguir": 3913,
      "itais": 3914,
      "Ġsess": 3915,
      "Ġapresentar": 3916,
      "ĠcomeÃ§ou": 3917,
      "Ġcant": 3918,
      "Ġmedidas": 3919,
      "rial": 3920,
      "Ġloja": 3921,
      "Segundo": 3922,
      "Ġsil": 3923,
      "ley": 3924,
      "Ġbaix": 3925,
      "Ġvanta": 3926,
      "ule": 3927,
      "Ġfix": 3928,
      "Ġdue": 3929,
      "ĠatrÃ¡s": 3930,
      "Ġexplic": 3931,
      "Ġrespec": 3932,
      "Ġaproxim": 3933,
      "Ġworks": 3934,
      "Ġnutri": 3935,
      "Ġmonitor": 3936,
      "Ġbir": 3937,
      "Ġemail": 3938,
      "Ġpoderia": 3939,
      "ĠTec": 3940,
      "ked": 3941,
      "How": 3942,
      "Ġcompon": 3943,
      "ĠFil": 3944,
      "Ġpassa": 3945,
      "Ġspecial": 3946,
      "dades": 3947,
      "ĠCivil": 3948,
      "atch": 3949,
      "Ġproporcion": 3950,
      "Ġabord": 3951,
      "imentaÃ§Ã£o": 3952,
      "ĠInd": 3953,
      "Ġoferecer": 3954,
      "Ġtran": 3955,
      "ÃŃg": 3956,
      "Ġcreate": 3957,
      "ĠcomunicaÃ§Ã£o": 3958,
      "Le": 3959,
      "Ġcelular": 3960,
      "oro": 3961,
      "tida": 3962,
      "ication": 3963,
      "ĠMe": 3964,
      "Ġ27": 3965,
      "Ġvel": 3966,
      "Ġfilhos": 3967,
      "IV": 3968,
      "ĠmÃ¡qu": 3969,
      "ified": 3970,
      "Ġmostra": 3971,
      "Ġestou": 3972,
      "Ġatt": 3973,
      "ĠporÃ©m": 3974,
      "ĠprÃ³xima": 3975,
      "ĠmÃŃn": 3976,
      "ses": 3977,
      "Ġbusiness": 3978,
      "ĠTrans": 3979,
      "Ġtent": 3980,
      "aves": 3981,
      "ĠCO": 3982,
      "Ġlot": 3983,
      "ĠEducaÃ§Ã£o": 3984,
      "Ġbrasileiro": 3985,
      "Ġcolocar": 3986,
      "Ġconsequ": 3987,
      "Ġfact": 3988,
      "ĠGrande": 3989,
      "ianÃ§a": 3990,
      "fici": 3991,
      "Ġagrad": 3992,
      "ĠUniversidade": 3993,
      "ĠmÃ©to": 3994,
      "Ġidade": 3995,
      "Ġmanifest": 3996,
      "Ġnet": 3997,
      "Ġpeso": 3998,
      "Ġprocessos": 3999,
      "ĠJustiÃ§a": 4000,
      "Ġocup": 4001,
      "Ġtaman": 4002,
      "Ġline": 4003,
      "utor": 4004,
      "Ġlittle": 4005,
      "ases": 4006,
      "inguÃ©m": 4007,
      "Ġexistem": 4008,
      "Ġmap": 4009,
      "ems": 4010,
      "Ġdicas": 4011,
      "Ġchegou": 4012,
      "ĠRep": 4013,
      "Ġmaking": 4014,
      "orr": 4015,
      "Ã¡ss": 4016,
      "Ġinj": 4017,
      "erva": 4018,
      "ĠStates": 4019,
      "Ġconcer": 4020,
      "Ġbrasile": 4021,
      "atamente": 4022,
      "ends": 4023,
      "Ġdura": 4024,
      "Ġ197": 4025,
      "ÃŃd": 4026,
      "Ġeducation": 4027,
      "Ġ2017": 4028,
      "Ġeventos": 4029,
      "Ġparece": 4030,
      "ega": 4031,
      "Ġ198": 4032,
      "Ġpoli": 4033,
      "Ġsum": 4034,
      "Ġviagem": 4035,
      "Ġreduc": 4036,
      "Ġcirc": 4037,
      "Ġparceria": 4038,
      "Ġocorre": 4039,
      "Ġfree": 4040,
      "ĠNational": 4041,
      "Ġlegal": 4042,
      "ĠQue": 4043,
      "Ġprior": 4044,
      "ush": 4045,
      "Ġacad": 4046,
      "Ġeletr": 4047,
      "Ã©rcio": 4048,
      "Pre": 4049,
      "Ġresposta": 4050,
      "Ġelim": 4051,
      "Ġprocur": 4052,
      "enÃ¡rio": 4053,
      "Ġaplicativo": 4054,
      "Ġacontece": 4055,
      "Ġbair": 4056,
      "Ġweb": 4057,
      "Ġsomething": 4058,
      "Ġhabit": 4059,
      "Ġimplement": 4060,
      "ĠlÃŃder": 4061,
      "pas": 4062,
      "At": 4063,
      "Ġpotential": 4064,
      "Ġassum": 4065,
      "Ġbelie": 4066,
      "Ġdivid": 4067,
      "ĠOf": 4068,
      "Ġreserv": 4069,
      "Ġsair": 4070,
      "Ġproject": 4071,
      "tigos": 4072,
      "IL": 4073,
      "ÃŃdu": 4074,
      "Ġdiss": 4075,
      "oney": 4076,
      "Ġlikely": 4077,
      "umb": 4078,
      "ĠRed": 4079,
      "ĠavanÃ§": 4080,
      "Ġinstrum": 4081,
      "Ġassess": 4082,
      "tidos": 4083,
      "Ġpast": 4084,
      "Ġ2011": 4085,
      "Ġdays": 4086,
      "ĠdoenÃ§a": 4087,
      "Ġpossibil": 4088,
      "cr": 4089,
      "DA": 4090,
      "ister": 4091,
      "ĠMais": 4092,
      "Ġge": 4093,
      "ĠNova": 4094,
      "ĠSocial": 4095,
      "una": 4096,
      "Ġconsul": 4097,
      "Ġincluindo": 4098,
      "Ġ#": 4099,
      "Ġsan": 4100,
      "let": 4101,
      "agement": 4102,
      "day": 4103,
      "erve": 4104,
      "Ġfech": 4105,
      "Ġpedido": 4106,
      "ĠDO": 4107,
      "veu": 4108,
      "Ġpossu": 4109,
      "Ġsystems": 4110,
      "Ġcommunity": 4111,
      "Ġfederal": 4112,
      "Ġ2014": 4113,
      "Ġassunto": 4114,
      "ĠWhat": 4115,
      "ĠOne": 4116,
      "Ġsignificant": 4117,
      "ĠfunÃ§Ã£o": 4118,
      "Ġrelev": 4119,
      "Ġstat": 4120,
      "ĠSecretaria": 4121,
      "Ġgiven": 4122,
      "ĠvocÃªs": 4123,
      "ĠEntÃ£o": 4124,
      "Ġcop": 4125,
      "Ġ2010": 4126,
      "Ġtechnology": 4127,
      "Ġdetalhes": 4128,
      "bil": 4129,
      "Ġisto": 4130,
      "Ġalimentos": 4131,
      "Ġfornec": 4132,
      "Ġquad": 4133,
      "cipl": 4134,
      "ĠTur": 4135,
      "ĠDia": 4136,
      "Ġgest": 4137,
      "Ġtornar": 4138,
      "Ġfeliz": 4139,
      "ardo": 4140,
      "Ġfisc": 4141,
      "gresso": 4142,
      "Ġsurg": 4143,
      "Ġlegis": 4144,
      "adoras": 4145,
      "velmente": 4146,
      "Ġuntil": 4147,
      "Ġexer": 4148,
      "Ġneeds": 4149,
      "Ġ26": 4150,
      "havi": 4151,
      "ĠsoluÃ§Ã£o": 4152,
      "Ġhou": 4153,
      "ĠÃŃn": 4154,
      "rist": 4155,
      "Ġcerteza": 4156,
      "On": 4157,
      "Ġvou": 4158,
      "ours": 4159,
      "Ġcampanha": 4160,
      "ĠPorto": 4161,
      "Ġpassou": 4162,
      "ficos": 4163,
      "ĠbenefÃŃcios": 4164,
      "Ġjovens": 4165,
      "fa": 4166,
      "criÃ§Ã£o": 4167,
      "Ġquantidade": 4168,
      "Ġactu": 4169,
      "Ġmovimento": 4170,
      "Out": 4171,
      "leo": 4172,
      "Ġusually": 4173,
      "Ġacontecer": 4174,
      "Ġconjunto": 4175,
      "Ġescrit": 4176,
      "Ġcentral": 4177,
      "ĠHist": 4178,
      "Ao": 4179,
      "ledge": 4180,
      "tives": 4181,
      "Ġalways": 4182,
      "Ġadm": 4183,
      "hou": 4184,
      "Ġhospital": 4185,
      "Ġfunction": 4186,
      "Ġsequ": 4187,
      "Ġirm": 4188,
      "Ġcells": 4189,
      "Ġincrease": 4190,
      "Ġvendas": 4191,
      "Ġ28": 4192,
      "Ġsac": 4193,
      "Ġsint": 4194,
      "Ġfutebol": 4195,
      "ength": 4196,
      "cie": 4197,
      "ĠOb": 4198,
      "Ġeconomia": 4199,
      "ĠWar": 4200,
      "Ġdomingo": 4201,
      "ribunal": 4202,
      "Ġcompos": 4203,
      "ĠInf": 4204,
      "Ġcourse": 4205,
      "Ġclear": 4206,
      "uz": 4207,
      "Ġmelhorar": 4208,
      "Ġinteresse": 4209,
      "Ġigual": 4210,
      "Ġatta": 4211,
      "Ġteam": 4212,
      "ĠSilva": 4213,
      "ĠCop": 4214,
      "duz": 4215,
      "Ġresults": 4216,
      "ann": 4217,
      "Ġinterpre": 4218,
      "Ġrealidade": 4219,
      "ĠterÃ§a": 4220,
      "Ġhid": 4221,
      "Ġtemporada": 4222,
      "ĠRod": 4223,
      "Ġdiffic": 4224,
      "upos": 4225,
      "Ġobras": 4226,
      "Ġeram": 4227,
      "EI": 4228,
      "Ġespecialmente": 4229,
      "utar": 4230,
      "Ġmillion": 4231,
      "Ġanterior": 4232,
      "Ġisol": 4233,
      "ĠnegociaÃ§Ã£o": 4234,
      "Ġanimal": 4235,
      "ĠMon": 4236,
      "utenÃ§Ã£o": 4237,
      "ĠhistÃ³r": 4238,
      "Ġcient": 4239,
      "Ġexperience": 4240,
      "NA": 4241,
      "Ġrecomend": 4242,
      "ĠcoraÃ§Ã£o": 4243,
      "Ġfunciona": 4244,
      "esar": 4245,
      "Ġorigin": 4246,
      "Ġplants": 4247,
      "DO": 4248,
      "usta": 4249,
      "Res": 4250,
      "Ġ=": 4251,
      "enhor": 4252,
      "ror": 4253,
      "Ġeta": 4254,
      "Ġvoltar": 4255,
      "Ġequipamentos": 4256,
      "Mar": 4257,
      "omo": 4258,
      "ĠSome": 4259,
      "Im": 4260,
      "Ġrealizado": 4261,
      "Ġcontrat": 4262,
      "Ġwhy": 4263,
      "ĠcabeÃ§a": 4264,
      "ĠInternet": 4265,
      "Ġtomar": 4266,
      "eful": 4267,
      "Ġauthor": 4268,
      "Ġrole": 4269,
      "ĠBra": 4270,
      "Ġpopulation": 4271,
      "Ġpalavras": 4272,
      "ovid": 4273,
      "vious": 4274,
      "Ġ2016": 4275,
      "Ġvig": 4276,
      "Ġpandemia": 4277,
      "Ġreconhec": 4278,
      "ĠWorld": 4279,
      "olesc": 4280,
      "Ġaprender": 4281,
      "Ġbrain": 4282,
      "Ġjud": 4283,
      "Ġencontra": 4284,
      "Ã©rica": 4285,
      "Ġvarious": 4286,
      "Ġperto": 4287,
      "Ġprej": 4288,
      "Ġmomentos": 4289,
      "Ġmeus": 4290,
      "ony": 4291,
      "Ġfri": 4292,
      "Ġapostas": 4293,
      "ĠmÃ©dia": 4294,
      "ĠsÃ©": 4295,
      "uls": 4296,
      "ĠcrianÃ§a": 4297,
      "Ġprev": 4298,
      "inter": 4299,
      "itÃ³ria": 4300,
      "ĠÃ³r": 4301,
      "gether": 4302,
      "Ġentrada": 4303,
      "ĠSantos": 4304,
      "ability": 4305,
      "ulaÃ§Ã£o": 4306,
      "Ġtradicion": 4307,
      "Ġtermos": 4308,
      "Ġafirma": 4309,
      "ban": 4310,
      "Ġimpact": 4311,
      "Ġformas": 4312,
      "ĠmÃ£os": 4313,
      "Ġdam": 4314,
      "Ã£s": 4315,
      "Ġcusto": 4316,
      "Ġacross": 4317,
      "Ġimpr": 4318,
      "itivos": 4319,
      "ossa": 4320,
      "Ġaqueles": 4321,
      "Ġcountries": 4322,
      "Ġsecret": 4323,
      "oman": 4324,
      "ĠproteÃ§Ã£o": 4325,
      "ker": 4326,
      "hel": 4327,
      "ĠFern": 4328,
      "Ġcidades": 4329,
      "AP": 4330,
      "gos": 4331,
      "mb": 4332,
      "There": 4333,
      "ĠmarÃ§o": 4334,
      "ĠTa": 4335,
      "Ġporta": 4336,
      "ÃŃtica": 4337,
      "Ġseis": 4338,
      "Ġtentar": 4339,
      "Ġdet": 4340,
      "Ġbaixo": 4341,
      "Ġjovem": 4342,
      "Ġinclusive": 4343,
      "Ġconven": 4344,
      "Ġliter": 4345,
      "ither": 4346,
      "roso": 4347,
      "Ġseguida": 4348,
      "Ġdiminu": 4349,
      "Ġtoday": 4350,
      "Ġmeta": 4351,
      "Ġnecessidades": 4352,
      "Ġdesempenho": 4353,
      "nal": 4354,
      "ptoms": 4355,
      "Ġprob": 4356,
      "Ġcabelo": 4357,
      "ĠsÃ¡bado": 4358,
      "Ġestran": 4359,
      "ĠGr": 4360,
      "ights": 4361,
      "ĠaÃŃ": 4362,
      "utas": 4363,
      "ĠHum": 4364,
      "Ġexplica": 4365,
      "rel": 4366,
      "Ġproposta": 4367,
      "Ġclique": 4368,
      "ĠcrÃ©dito": 4369,
      "ols": 4370,
      "ĠFer": 4371,
      "Ġpovo": 4372,
      "eias": 4373,
      "Ġgive": 4374,
      "Ġesfor": 4375,
      "ego": 4376,
      "tado": 4377,
      "ĠStu": 4378,
      "Ġterra": 4379,
      "oo": 4380,
      "Ġpena": 4381,
      "Ġsustent": 4382,
      "ĠYork": 4383,
      "27": 4384,
      "ify": 4385,
      "Ġroup": 4386,
      "Ġlanguage": 4387,
      "mical": 4388,
      "ĠBen": 4389,
      "wer": 4390,
      "adeira": 4391,
      "Ġarte": 4392,
      "elhos": 4393,
      "quia": 4394,
      "not": 4395,
      "ĠFin": 4396,
      "ires": 4397,
      "oid": 4398,
      "Ġnext": 4399,
      "hy": 4400,
      "ĠTambÃ©m": 4401,
      "Ġmodelos": 4402,
      "Ã£es": 4403,
      "Ġhigher": 4404,
      "ĠFacebook": 4405,
      "Ġpic": 4406,
      "Ġcomport": 4407,
      "Ġmaio": 4408,
      "Ġpatients": 4409,
      "Mais": 4410,
      "Ġside": 4411,
      "ĠmÃ©dico": 4412,
      "Ġconditions": 4413,
      "Ġlaw": 4414,
      "Ġbig": 4415,
      "Ġbegin": 4416,
      "Ġentrega": 4417,
      "Ã©dio": 4418,
      "Ġconfer": 4419,
      "ĠPo": 4420,
      "ĠmudanÃ§a": 4421,
      "Ġcursos": 4422,
      "ĠtÃ©cnica": 4423,
      "Ġtab": 4424,
      "Ġenough": 4425,
      "Ġmateriais": 4426,
      "Ġinterior": 4427,
      "Ġill": 4428,
      "Ġnota": 4429,
      "Ġapplica": 4430,
      "eios": 4431,
      "ostos": 4432,
      "Ġsele": 4433,
      "ka": 4434,
      "Ġsaf": 4435,
      "Ġdaqu": 4436,
      "Ġlay": 4437,
      "ilha": 4438,
      "oder": 4439,
      "Ġcontem": 4440,
      "ĠbÃ¡s": 4441,
      "enham": 4442,
      "Ad": 4443,
      "Ġdisp": 4444,
      "Ġjogar": 4445,
      "SP": 4446,
      "Ġtypes": 4447,
      "pecial": 4448,
      "rug": 4449,
      "Ġlider": 4450,
      "erson": 4451,
      "rol": 4452,
      "Ġparce": 4453,
      "Ġcorpor": 4454,
      "viv": 4455,
      "ĠaplicaÃ§Ã£o": 4456,
      "Ġworking": 4457,
      "99": 4458,
      "Ġinvestimento": 4459,
      "ĠcartÃ£o": 4460,
      "ĠalcanÃ§": 4461,
      "Ġprem": 4462,
      "Ġresid": 4463,
      "Ġ2015": 4464,
      "Ġtransporte": 4465,
      "Ġshort": 4466,
      "Ġintens": 4467,
      "ĠprÃ³pri": 4468,
      "Ġves": 4469,
      "Ġrepe": 4470,
      "ĠWindows": 4471,
      "Ġways": 4472,
      "Ġmach": 4473,
      "Ġjunho": 4474,
      "Ġeffects": 4475,
      "Ġcores": 4476,
      "Ġwords": 4477,
      "Ġsha": 4478,
      "pesar": 4479,
      "Ġestavam": 4480,
      "zes": 4481,
      "Ġfesta": 4482,
      "ecu": 4483,
      "ĠWith": 4484,
      "ky": 4485,
      "Ġview": 4486,
      "Ġdisponibil": 4487,
      "Ġleast": 4488,
      "ĠrÃ¡pido": 4489,
      "Ġlin": 4490,
      "Ġencontro": 4491,
      "fl": 4492,
      "Ã´nio": 4493,
      "Ġface": 4494,
      "ĠsoluÃ§Ãµes": 4495,
      "isso": 4496,
      "estr": 4497,
      "Ġdescob": 4498,
      "Ġdro": 4499,
      "ceu": 4500,
      "fice": 4501,
      "Ġinternacional": 4502,
      "Ġquest": 4503,
      "Ġapresenta": 4504,
      "Ġbehavi": 4505,
      "Ġapproach": 4506,
      "Ġdecor": 4507,
      "Ġhowever": 4508,
      "Ġestabl": 4509,
      "Ġtaxa": 4510,
      "Ġrequire": 4511,
      "Ġdou": 4512,
      "arch": 4513,
      "ĠMat": 4514,
      "ĠJul": 4515,
      "Ġheart": 4516,
      "Ġself": 4517,
      "Ġmenor": 4518,
      "Ġnessa": 4519,
      "Ġgrupos": 4520,
      "Ġhotel": 4521,
      "Ġselecion": 4522,
      "ĠEar": 4523,
      "Ġfuture": 4524,
      "Ġsuporte": 4525,
      "ĠEUA": 4526,
      "onav": 4527,
      "Ġhistor": 4528,
      ");": 4529,
      "Ġreac": 4530,
      "Ġmeasure": 4531,
      "Ġfull": 4532,
      "ators": 4533,
      "Ġkey": 4534,
      "Ġnor": 4535,
      "):": 4536,
      "elos": 4537,
      "Ġtogether": 4538,
      "ably": 4539,
      "Ġanalis": 4540,
      "Ġfamos": 4541,
      "Ġinstru": 4542,
      "Ã©tica": 4543,
      "atures": 4544,
      "ĠMac": 4545,
      "Ġbrasileira": 4546,
      "curso": 4547,
      "Ġresponsabilidade": 4548,
      "ĠEles": 4549,
      "izados": 4550,
      "Ġanimais": 4551,
      "ĠDan": 4552,
      "Ãį": 4553,
      "ĠCa": 4554,
      "ĠTrabal": 4555,
      "Ġdor": 4556,
      "Ġspecific": 4557,
      "Ġlabor": 4558,
      "Ġmist": 4559,
      "Ġflow": 4560,
      "ĠÃ³rg": 4561,
      "ĠVi": 4562,
      "Ġdeath": 4563,
      "ĠSte": 4564,
      "Ġrealizada": 4565,
      "Ġchanges": 4566,
      "Ġmoder": 4567,
      "Ġflu": 4568,
      "Ġoccur": 4569,
      "Ġlive": 4570,
      "ĠEnglish": 4571,
      "Ġindustr": 4572,
      "wards": 4573,
      "Ġabove": 4574,
      "ĠCarlos": 4575,
      "ĠGoverno": 4576,
      "ung": 4577,
      "ĠWest": 4578,
      "Ġsexual": 4579,
      "ĠUs": 4580,
      "ements": 4581,
      "Ġinicial": 4582,
      "Ġcut": 4583,
      "Ġaway": 4584,
      "ĠAmaz": 4585,
      "Ġ80": 4586,
      "ET": 4587,
      "Ġdela": 4588,
      "Ġteria": 4589,
      "Ġespecially": 4590,
      "most": 4591,
      "tenÃ§Ã£o": 4592,
      "ĠFre": 4593,
      "ĠdiferenÃ§a": 4594,
      "ĠGen": 4595,
      "Ġshows": 4596,
      "Ġcic": 4597,
      "eds": 4598,
      "Ġusado": 4599,
      "Ġrefor": 4600,
      "QU": 4601,
      "oque": 4602,
      "hia": 4603,
      "Ġsofr": 4604,
      "Ġdemoc": 4605,
      "ised": 4606,
      "Ġmental": 4607,
      "Ġfosse": 4608,
      "Ġsala": 4609,
      "ĠmudanÃ§as": 4610,
      "Ġsistemas": 4611,
      "Ġdesses": 4612,
      "idar": 4613,
      "Ġappear": 4614,
      "Ġindust": 4615,
      "ĠDepois": 4616,
      "Car": 4617,
      "JÃ¡": 4618,
      "UN": 4619,
      "Ġdiretamente": 4620,
      "Ã¼": 4621,
      "Ġfig": 4622,
      "Ġdescrib": 4623,
      "respon": 4624,
      "Ġgoing": 4625,
      "Ġaquele": 4626,
      "Ġabril": 4627,
      "Ġstrong": 4628,
      "cin": 4629,
      "05": 4630,
      "Ġportugu": 4631,
      "UL": 4632,
      "AT": 4633,
      "hol": 4634,
      "Ġestes": 4635,
      "Ġpaper": 4636,
      "ĠdÃ©c": 4637,
      "Ġther": 4638,
      "Ġapre": 4639,
      "Ġ29": 4640,
      "Ġaconteceu": 4641,
      "Ġvont": 4642,
      "ĠII": 4643,
      "Ġkm": 4644,
      "tation": 4645,
      "Ġsuf": 4646,
      "Ġpequeno": 4647,
      "ĠSen": 4648,
      "urity": 4649,
      "ĠpeÃ§as": 4650,
      "Ãºstria": 4651,
      "Ġuns": 4652,
      "Ġassin": 4653,
      "ĠestratÃ©gia": 4654,
      "Ġtrabalhos": 4655,
      "Ġtorna": 4656,
      "Ġrom": 4657,
      "Ġimedi": 4658,
      "Ġcases": 4659,
      "Ġmakes": 4660,
      "ploy": 4661,
      "alf": 4662,
      "Ġcultural": 4663,
      "Ġtransport": 4664,
      "Ġtotalmente": 4665,
      "ready": 4666,
      "selves": 4667,
      "umo": 4668,
      "ĠMul": 4669,
      "pread": 4670,
      "Ġcidad": 4671,
      "Ġconfl": 4672,
      "ĠSy": 4673,
      "Ġnever": 4674,
      "ĠdÃºvidas": 4675,
      "ĠLeg": 4676,
      "ĠSegundo": 4677,
      "Ġseguinte": 4678,
      "Ġwebs": 4679,
      "Ġdesl": 4680,
      "Ġharm": 4681,
      "Ġamount": 4682,
      "Ġpensar": 4683,
      "Ġoffer": 4684,
      "Ġsufic": 4685,
      "Ġchall": 4686,
      "Ġsett": 4687,
      "Ġconsult": 4688,
      "ĠmanutenÃ§Ã£o": 4689,
      "cho": 4690,
      "ĠForex": 4691,
      "Ġproducts": 4692,
      "Ã´nia": 4693,
      "ling": 4694,
      "Ġpho": 4695,
      "ĠrealizaÃ§Ã£o": 4696,
      "Ġcover": 4697,
      "Ġpermit": 4698,
      "enha": 4699,
      "var": 4700,
      "Ġnatureza": 4701,
      "ises": 4702,
      "Ġcrime": 4703,
      "Ġspace": 4704,
      "Ġviver": 4705,
      "Ġvale": 4706,
      "26": 4707,
      "zer": 4708,
      "Ġdiante": 4709,
      "alizar": 4710,
      "Ġcompleta": 4711,
      "108": 4712,
      "Ġgene": 4713,
      "aim": 4714,
      "ograph": 4715,
      "Ġrod": 4716,
      "Ġatend": 4717,
      "antar": 4718,
      "Ġcentury": 4719,
      "Ġconsumo": 4720,
      "Par": 4721,
      "arda": 4722,
      "Ġassist": 4723,
      "ĠMay": 4724,
      "iante": 4725,
      "ĠninguÃ©m": 4726,
      "Ġvolume": 4727,
      "ief": 4728,
      "Ġdifficult": 4729,
      "Ġnave": 4730,
      "ood": 4731,
      "Ã³sito": 4732,
      "Ch": 4733,
      "Ġagu": 4734,
      "roid": 4735,
      "Ġsatisf": 4736,
      "Ġsw": 4737,
      "orge": 4738,
      "ĠfuncionÃ¡rios": 4739,
      "ÃŃrus": 4740,
      "azer": 4741,
      "Ġjaneiro": 4742,
      "Ġkind": 4743,
      "ctions": 4744,
      "enn": 4745,
      "ĠÃ¢": 4746,
      "Ġcontar": 4747,
      "Ġolhos": 4748,
      "Ġreason": 4749,
      "Ġvar": 4750,
      "Ġ2009": 4751,
      "Ġcurrent": 4752,
      "Ġefeito": 4753,
      "ĠOu": 4754,
      "Ġembora": 4755,
      "Ġacres": 4756,
      "reen": 4757,
      "Ġloss": 4758,
      "Ġatender": 4759,
      "ĠdireÃ§Ã£o": 4760,
      "Ġconforme": 4761,
      "Ġcalor": 4762,
      "Ġdr": 4763,
      "Ġconhecido": 4764,
      "Ġvaria": 4765,
      "ms": 4766,
      "name": 4767,
      "ĠPC": 4768,
      "When": 4769,
      "Ġhaving": 4770,
      "Ġpagar": 4771,
      "ĠquestÃµes": 4772,
      "ĠNeg": 4773,
      "Ġleft": 4774,
      "Ġprecisam": 4775,
      "Ġseguro": 4776,
      "Ġpeg": 4777,
      "Ġcred": 4778,
      "ĠQual": 4779,
      "Ġcomprom": 4780,
      "Ġsel": 4781,
      "Ġsure": 4782,
      "Ġjulho": 4783,
      "Ġcontinuar": 4784,
      "Ġphysical": 4785,
      "Ġpan": 4786,
      "Ġrepro": 4787,
      "Ġpersonal": 4788,
      "Ġsuggest": 4789,
      "Ġsymptoms": 4790,
      "Ġtamanho": 4791,
      "hop": 4792,
      "ape": 4793,
      "Ġvontade": 4794,
      "ĠDav": 4795,
      "Ġvivo": 4796,
      "Ġcrise": 4797,
      "Ġterrit": 4798,
      "Ġstudies": 4799,
      "Ġcomerci": 4800,
      "Ġwhether": 4801,
      "esqu": 4802,
      "Ġsetembro": 4803,
      "ĠavaliaÃ§Ã£o": 4804,
      "Ġcreat": 4805,
      "Ġhaver": 4806,
      "ĠPA": 4807,
      "thern": 4808,
      "Ġstory": 4809,
      "ĠShe": 4810,
      "peon": 4811,
      "Ġsingle": 4812,
      "Ġresources": 4813,
      "Ġcarbon": 4814,
      "Ġ90": 4815,
      "risti": 4816,
      "ĠCasa": 4817,
      "ĠtÃŃtulo": 4818,
      "ĠposiÃ§Ã£o": 4819,
      "Esta": 4820,
      "Ġvin": 4821,
      "Ġambient": 4822,
      "Ġbelow": 4823,
      "ĠInstituto": 4824,
      "ints": 4825,
      "ysis": 4826,
      "Ġlower": 4827,
      "Ġjogador": 4828,
      "Ġcompet": 4829,
      "ĠcaracterÃŃsticas": 4830,
      "Ġcook": 4831,
      "Ġfala": 4832,
      "Ġcity": 4833,
      "acy": 4834,
      "Ġexcelente": 4835,
      "ĠEssa": 4836,
      "deu": 4837,
      "Ag": 4838,
      "Ġadolesc": 4839,
      "Ġrange": 4840,
      "ĠSP": 4841,
      "iting": 4842,
      "Ġnovembro": 4843,
      "Ġalready": 4844,
      "Ġresist": 4845,
      "Ġcontrato": 4846,
      "Ġfemin": 4847,
      "ĠNot": 4848,
      "Ġnovamente": 4849,
      "ĠusuÃ¡rio": 4850,
      "Ġconsci": 4851,
      "ĠdeverÃ¡": 4852,
      "Ġregion": 4853,
      "Ġtit": 4854,
      "ĠSam": 4855,
      "ĠGra": 4856,
      "Ġcoorden": 4857,
      "frica": 4858,
      "Ãµe": 4859,
      "Ġprimeiros": 4860,
      "Ġjusti": 4861,
      "ĠEsse": 4862,
      "Ġminim": 4863,
      "Ġmostrar": 4864,
      "Ġprogress": 4865,
      "Ġproduction": 4866,
      "Ġnorte": 4867,
      "itada": 4868,
      "Ġclos": 4869,
      "Ġbusc": 4870,
      "Ġrepresenta": 4871,
      "ĠAra": 4872,
      "ĠAmb": 4873,
      "Ġrot": 4874,
      "Ġdocument": 4875,
      "Ġperd": 4876,
      "MS": 4877,
      "Ġhon": 4878,
      "etr": 4879,
      "Ġagosto": 4880,
      "Ġfever": 4881,
      "Ġâ": 4882,
      "Ġcadas": 4883,
      "Ġutilizar": 4884,
      "icaÃ§Ãµes": 4885,
      "Ġferramentas": 4886,
      "Ġinvolv": 4887,
      "Ġ70": 4888,
      "Ġaddition": 4889,
      "Ġox": 4890,
      "Ġactivities": 4891,
      "Ġdezembro": 4892,
      "Ã§ar": 4893,
      "Ġreally": 4894,
      "ĠHar": 4895,
      "Ġaulas": 4896,
      "Ġknowledge": 4897,
      "Un": 4898,
      "ert": 4899,
      "Ġboas": 4900,
      "Ġhouse": 4901,
      "Ġprinc": 4902,
      "Ġprocura": 4903,
      "Ġexplor": 4904,
      "Ġcrim": 4905,
      "Ġdesenvolver": 4906,
      "bio": 4907,
      "Ġclube": 4908,
      "ĠoperaÃ§Ã£o": 4909,
      "Ġcarreira": 4910,
      "ĠConselho": 4911,
      "Ġchance": 4912,
      "ogos": 4913,
      "side": 4914,
      "Ġestudos": 4915,
      "Ġrelations": 4916,
      "Ġrecomm": 4917,
      "ĠMag": 4918,
      "ĠFoi": 4919,
      "Ġdiet": 4920,
      "ĠpÃºblicos": 4921,
      "Ġcontas": 4922,
      "Ġcomputador": 4923,
      "Ġamar": 4924,
      "Ġnews": 4925,
      "ĠDepart": 4926,
      "Ġsurface": 4927,
      "Ġsubstitu": 4928,
      "ering": 4929,
      "alizado": 4930,
      "ĠLo": 4931,
      "Ġconserv": 4932,
      "ĠÃ¡l": 4933,
      "ections": 4934,
      "ince": 4935,
      "Ġwr": 4936,
      "posiÃ§Ã£o": 4937,
      "rosoft": 4938,
      "yle": 4939,
      "ouro": 4940,
      "ĠPat": 4941,
      "ĠHealth": 4942,
      "gredi": 4943,
      "iores": 4944,
      "tagram": 4945,
      "ĠespÃ©": 4946,
      "sonaro": 4947,
      "Ġfeed": 4948,
      "Ġsuspe": 4949,
      "Ġquarto": 4950,
      "Ġlav": 4951,
      "03": 4952,
      "edo": 4953,
      "omb": 4954,
      "rael": 4955,
      "Ġintelig": 4956,
      "Ġincr": 4957,
      "Ġblack": 4958,
      "Ġelabor": 4959,
      "itores": 4960,
      "ĠGar": 4961,
      "ĠelÃ©tr": 4962,
      "Ġsei": 4963,
      "estiv": 4964,
      "Ġnenhuma": 4965,
      "ĠEcon": 4966,
      "AB": 4967,
      "Ġexib": 4968,
      "Ġregras": 4969,
      "ĠmÃ¡ximo": 4970,
      "Ġmudar": 4971,
      "ĠPS": 4972,
      "Ġabrir": 4973,
      "Ġcorrespon": 4974,
      "afÃ©": 4975,
      "dr": 4976,
      "ules": 4977,
      "ĠBrit": 4978,
      "cons": 4979,
      "Ġentrevista": 4980,
      "PR": 4981,
      "ird": 4982,
      "ÃŃlias": 4983,
      "ched": 4984,
      "Ġdirig": 4985,
      "ĠAdminist": 4986,
      "Ġpesquis": 4987,
      "Ġcuidados": 4988,
      "Ġconcre": 4989,
      "Ġquality": 4990,
      "Ġtenta": 4991,
      "Ġmac": 4992,
      "itual": 4993,
      "Ġquiser": 4994,
      "Ġbuilding": 4995,
      "Ġprotec": 4996,
      "Ġbairro": 4997,
      "vido": 4998,
      "Ġscience": 4999,
      "Ġmid": 5000,
      "Ġbin": 5001,
      "bora": 5002,
      "45": 5003,
      "Ġefeitos": 5004,
      "Ġju": 5005,
      "ĠThat": 5006,
      "sas": 5007,
      "ficient": 5008,
      "28": 5009,
      "Ġsor": 5010,
      "use": 5011,
      "Ġpartida": 5012,
      "Ġprogramas": 5013,
      "Ġcass": 5014,
      "Ġmembros": 5015,
      "edor": 5016,
      "Ġcheck": 5017,
      "ĠJap": 5018,
      "Ġ2008": 5019,
      "ĠCer": 5020,
      "omos": 5021,
      "times": 5022,
      "Ġbecame": 5023,
      "Ġcob": 5024,
      "Ġperda": 5025,
      "Ġarmaz": 5026,
      "ox": 5027,
      "ilt": 5028,
      "Ġtaref": 5029,
      "Ġdefesa": 5030,
      "bit": 5031,
      "ini": 5032,
      "irst": 5033,
      "Ġoutubro": 5034,
      "ĠDef": 5035,
      "Ġskin": 5036,
      "Ġvitam": 5037,
      "Ġhttp": 5038,
      "Ġcond": 5039,
      "ĠcomeÃ§a": 5040,
      "Ġfurther": 5041,
      "Ġfall": 5042,
      "Ã´nica": 5043,
      "Ġadap": 5044,
      "Ġba": 5045,
      "right": 5046,
      "posto": 5047,
      "Ġincor": 5048,
      "Ġtrata": 5049,
      "ificado": 5050,
      "Ġachie": 5051,
      "Ġmec": 5052,
      "une": 5053,
      "ĠNorth": 5054,
      "ĠAgora": 5055,
      "Ġolhar": 5056,
      "ived": 5057,
      "ÃŃss": 5058,
      "Ġconvid": 5059,
      "Ġaddress": 5060,
      "Ġportanto": 5061,
      "Ġrecebeu": 5062,
      "Ġgast": 5063,
      "Entre": 5064,
      "Ġrate": 5065,
      "urais": 5066,
      "ĠCOM": 5067,
      "Ġground": 5068,
      "ĠpolÃŃticas": 5069,
      "self": 5070,
      "envolv": 5071,
      "Ġresearchers": 5072,
      "Ġrob": 5073,
      "ĠreuniÃ£o": 5074,
      "ĠBro": 5075,
      "Ġapesar": 5076,
      "onal": 5077,
      "Ġvegeta": 5078,
      "65": 5079,
      "tif": 5080,
      "Ġyoung": 5081,
      "Ġacus": 5082,
      "pot": 5083,
      "Ġprefeito": 5084,
      "ĠtÃ©cnico": 5085,
      "para": 5086,
      "Ġcontam": 5087,
      "Ġcomem": 5088,
      "Ġdone": 5089,
      "Ġskills": 5090,
      "Ele": 5091,
      "ĠDel": 5092,
      "Ġperformance": 5093,
      "uranÃ§a": 5094,
      "Ġchamado": 5095,
      "Ġsangu": 5096,
      "Ġluta": 5097,
      "Ġsource": 5098,
      "Ġopportun": 5099,
      "ĠEuropa": 5100,
      "ĠveÃŃculo": 5101,
      "Ġmeet": 5102,
      "Ġpay": 5103,
      "ĠMod": 5104,
      "Ġperfe": 5105,
      "Ġinteg": 5106,
      "Ġpresentes": 5107,
      "utes": 5108,
      "ĠAlex": 5109,
      "Ġimpacto": 5110,
      "Ġmensagem": 5111,
      "Ġfundo": 5112,
      "ĠSp": 5113,
      "Ġnego": 5114,
      "ĠFrancis": 5115,
      "Ġdeseja": 5116,
      "pira": 5117,
      "Ã§amento": 5118,
      "leep": 5119,
      "ĠBy": 5120,
      "uar": 5121,
      "lim": 5122,
      "Veja": 5123,
      "inking": 5124,
      "Ġsentir": 5125,
      "ĠfaÃ§a": 5126,
      "Ġlegisl": 5127,
      "ĠAustr": 5128,
      "Â°": 5129,
      "ologias": 5130,
      "Ġdeta": 5131,
      "Ġfres": 5132,
      "atÃ³rios": 5133,
      "ontes": 5134,
      "Ġeffect": 5135,
      "ĠChe": 5136,
      "ĠPrefeitura": 5137,
      "ĠcontrÃ¡rio": 5138,
      "ĠOp": 5139,
      "Ġviaj": 5140,
      "Ġaccording": 5141,
      "Ġgroups": 5142,
      "Ġincent": 5143,
      "glÃªs": 5144,
      "Ġepis": 5145,
      "ota": 5146,
      "anha": 5147,
      "Ġconquist": 5148,
      "Ġconver": 5149,
      "ĠNet": 5150,
      "Ġcanal": 5151,
      "ĠAng": 5152,
      "Ġcontex": 5153,
      "Ġprofessores": 5154,
      "cks": 5155,
      "Ġcompleto": 5156,
      "indic": 5157,
      "Ġfive": 5158,
      "Ġstress": 5159,
      "Ġpressure": 5160,
      "Ġtais": 5161,
      "ump": 5162,
      "Ġler": 5163,
      "Ġlivros": 5164,
      "Ġissues": 5165,
      "eder": 5166,
      "ĠHÃ¡": 5167,
      "Ġbrasileiros": 5168,
      "Ġunidade": 5169,
      "ĠWeb": 5170,
      "Ġconsegue": 5171,
      "Fonte": 5172,
      "Ġreduce": 5173,
      "Ġmusic": 5174,
      "Ġdeveloped": 5175,
      "Ġgeralmente": 5176,
      "ĠSouth": 5177,
      "Ġrevol": 5178,
      "ĠHot": 5179,
      "ĠAut": 5180,
      "Ġdemand": 5181,
      "ĠfamÃŃlias": 5182,
      "ĠAmerica": 5183,
      "Ġarticle": 5184,
      "ĠNorte": 5185,
      "ĠChar": 5186,
      "Ġvalue": 5187,
      "Ġtrabalhadores": 5188,
      "Ã©u": 5189,
      "ĠTribunal": 5190,
      "Ġessencial": 5191,
      ".)": 5192,
      "ĠpadrÃ£o": 5193,
      "09": 5194,
      "29": 5195,
      "ried": 5196,
      "onia": 5197,
      "ĠutilizaÃ§Ã£o": 5198,
      "Ġpacientes": 5199,
      "Ġonce": 5200,
      "eria": 5201,
      "Ġwhole": 5202,
      "Ġdelic": 5203,
      "Ġexpecta": 5204,
      "ĠDist": 5205,
      "ĠAmÃ©rica": 5206,
      "Ġactivity": 5207,
      "Ġferramenta": 5208,
      "Ã©tico": 5209,
      "Ġtempos": 5210,
      "ĠWill": 5211,
      "ĠBi": 5212,
      "Ġrua": 5213,
      "08": 5214,
      "ester": 5215,
      "ĠEv": 5216,
      "ariamente": 5217,
      "Ġreduz": 5218,
      "Ġtradition": 5219,
      "ĠvisÃ£o": 5220,
      "Ġgal": 5221,
      "jos": 5222,
      "time": 5223,
      "Ġaver": 5224,
      "Ġsize": 5225,
      "Ġtell": 5226,
      "inf": 5227,
      "CO": 5228,
      "Ġrev": 5229,
      "ĠcenÃ¡rio": 5230,
      "ips": 5231,
      "ardim": 5232,
      "Ġpossam": 5233,
      "Ġautoma": 5234,
      "Ġaz": 5235,
      "oco": 5236,
      "ĠvÃŃdeos": 5237,
      "peonato": 5238,
      "ania": 5239,
      "icle": 5240,
      "07": 5241,
      "htt": 5242,
      "boa": 5243,
      "Ġtelefone": 5244,
      "ization": 5245,
      "ĠrazÃ£o": 5246,
      "ging": 5247,
      "heiros": 5248,
      "peza": 5249,
      "Ġgrowth": 5250,
      "Ġseen": 5251,
      "ĠPedro": 5252,
      "into": 5253,
      "Ġfield": 5254,
      "Ġorg": 5255,
      "Ġweek": 5256,
      "ĠPlan": 5257,
      "example": 5258,
      "Ġrenda": 5259,
      "ĠBolsonaro": 5260,
      "06": 5261,
      "ĠServ": 5262,
      "ington": 5263,
      "ĠTod": 5264,
      "Ġmembers": 5265,
      "To": 5266,
      "olÃ³gico": 5267,
      "Ġesteja": 5268,
      "Ġfel": 5269,
      "Ġrather": 5270,
      "Ġmaterials": 5271,
      "Ġflex": 5272,
      "titude": 5273,
      "ĠGerman": 5274,
      "Ġbrea": 5275,
      "Ġamea": 5276,
      "uit": 5277,
      "Ġcaixa": 5278,
      "Ġclar": 5279,
      "onavÃŃrus": 5280,
      "Ġmotiv": 5281,
      "ctor": 5282,
      "itados": 5283,
      "ĠSE": 5284,
      "Ġrecogn": 5285,
      "Ġmedical": 5286,
      "Ġestas": 5287,
      "Ġ35": 5288,
      "tead": 5289,
      "ĠMerc": 5290,
      "Ġperspec": 5291,
      "dle": 5292,
      "Ġcara": 5293,
      "Ġrigh": 5294,
      "Ġcima": 5295,
      "ĠnotÃŃcias": 5296,
      "Ġseguintes": 5297,
      "Ġdiagnos": 5298,
      "etal": 5299,
      "Ġwhite": 5300,
      "You": 5301,
      "itou": 5302,
      "seg": 5303,
      "Ġcasamento": 5304,
      "Ġpequena": 5305,
      "ĠFund": 5306,
      "iso": 5307,
      "betes": 5308,
      "Ġpratic": 5309,
      "ĠBel": 5310,
      "etros": 5311,
      "Ġverm": 5312,
      "Ġchemical": 5313,
      "ĠveÃŃculos": 5314,
      "oud": 5315,
      "SS": 5316,
      "ĠcomentÃ¡rios": 5317,
      "ĠAgr": 5318,
      "Ġcertific": 5319,
      "Ġfilmes": 5320,
      "Ġhabil": 5321,
      "Ġtele": 5322,
      "Ġocc": 5323,
      "tically": 5324,
      "umin": 5325,
      "ĠCru": 5326,
      "Ġveloc": 5327,
      "ĠCON": 5328,
      "Ġpotencial": 5329,
      "acidade": 5330,
      "01": 5331,
      "antil": 5332,
      "ĠSup": 5333,
      "Ġressal": 5334,
      "ĠRodri": 5335,
      "ĠCab": 5336,
      "Ġdestru": 5337,
      "ici": 5338,
      "Ġdeixa": 5339,
      "ĠinstituiÃ§Ãµes": 5340,
      "Ġinfer": 5341,
      "ych": 5342,
      "table": 5343,
      "Ġargum": 5344,
      "Ġrecurso": 5345,
      "istema": 5346,
      "ĠInterna": 5347,
      "rup": 5348,
      "ÃŃb": 5349,
      "Ġcontent": 5350,
      "Ġendere": 5351,
      "ĠSm": 5352,
      "Ġiniti": 5353,
      "Ġenvol": 5354,
      "forto": 5355,
      "Ġhttps": 5356,
      "ki": 5357,
      "ĠKing": 5358,
      "Ġvisto": 5359,
      "ĠmÃ©dio": 5360,
      "35": 5361,
      "ĠtÃ©cnicas": 5362,
      "Ġquestions": 5363,
      "cep": 5364,
      "ison": 5365,
      "own": 5366,
      "ĠapresentaÃ§Ã£o": 5367,
      "avil": 5368,
      "bert": 5369,
      "Ġmedo": 5370,
      "Ġtirar": 5371,
      "Ġacid": 5372,
      "ĠQU": 5373,
      "Ġann": 5374,
      "Ġport": 5375,
      "reu": 5376,
      "Ġquick": 5377,
      "ĠSan": 5378,
      "Ġje": 5379,
      "Ġordem": 5380,
      "CE": 5381,
      "Ġlab": 5382,
      "ÃŃrito": 5383,
      "ĠPaul": 5384,
      "Ġhealthy": 5385,
      "istem": 5386,
      "ĠconfianÃ§a": 5387,
      "Ġbanco": 5388,
      "Ġaument": 5389,
      "Ġcreated": 5390,
      "ĠCentral": 5391,
      "Ġflo": 5392,
      "ĠHer": 5393,
      "Ġsimple": 5394,
      "issÃµes": 5395,
      "Ġ31": 5396,
      "VID": 5397,
      "ĠTodos": 5398,
      "ĠreduÃ§Ã£o": 5399,
      "IT": 5400,
      "Ġsyn": 5401,
      "Ġvul": 5402,
      "Ġcy": 5403,
      "estas": 5404,
      "ĠSuper": 5405,
      "Ġdessas": 5406,
      "Ġforex": 5407,
      "Ġconsidered": 5408,
      "Conf": 5409,
      "04": 5410,
      "Ġdownload": 5411,
      "Ġmotivo": 5412,
      "Ġsolar": 5413,
      "Ġestudantes": 5414,
      "Pr": 5415,
      "Ġeither": 5416,
      "Ġbur": 5417,
      "ĠanÃºn": 5418,
      "ĠLis": 5419,
      "Ġclimate": 5420,
      "Ġpartes": 5421,
      "Ġelementos": 5422,
      "Ġability": 5423,
      "ĠlanÃ§amento": 5424,
      "ray": 5425,
      "Ġreais": 5426,
      "ĠApr": 5427,
      "ĠMal": 5428,
      "Ġconfigura": 5429,
      "Ġrequired": 5430,
      "Ġturn": 5431,
      "Ġhumanos": 5432,
      "emic": 5433,
      "ications": 5434,
      "ĠmatÃ©ria": 5435,
      "ĠprÃ³ximos": 5436,
      "Ġministro": 5437,
      "Ġmarcas": 5438,
      "Ġbril": 5439,
      "ournal": 5440,
      "ĠFlor": 5441,
      "Ġcontinue": 5442,
      "pla": 5443,
      "Ġcuidado": 5444,
      "Ġactually": 5445,
      "rama": 5446,
      "Ġengine": 5447,
      "Ġvagas": 5448,
      "onas": 5449,
      "Ã¡r": 5450,
      "Ġgame": 5451,
      "bles": 5452,
      "Ġsemelh": 5453,
      "Ġthemselves": 5454,
      "Ġvoc": 5455,
      "dire": 5456,
      "Ġpoucos": 5457,
      "Ġescolas": 5458,
      "Rec": 5459,
      "ĠcomÃ©rcio": 5460,
      "DE": 5461,
      "Ġcomes": 5462,
      "endeu": 5463,
      "ApÃ³s": 5464,
      "Ġjob": 5465,
      "Ġpractice": 5466,
      "Ġunderstanding": 5467,
      "Ġlat": 5468,
      "Ġperfil": 5469,
      "Ġapont": 5470,
      "Ġsound": 5471,
      "Ġinici": 5472,
      "Ġleitura": 5473,
      "tures": 5474,
      "ĠLiv": 5475,
      "ĠHospital": 5476,
      "mon": 5477,
      "Ġleve": 5478,
      "ĠServi": 5479,
      "Ġsemanas": 5480,
      "Ġcategoria": 5481,
      "ĠGeral": 5482,
      "togra": 5483,
      "Ġrelated": 5484,
      "Ġnational": 5485,
      "ĠLond": 5486,
      "aiba": 5487,
      "Ġtaken": 5488,
      "Ġserve": 5489,
      "pass": 5490,
      "Ġchega": 5491,
      "ĠdoenÃ§as": 5492,
      "Ġoportunidades": 5493,
      "Ġafet": 5494,
      "ĠdÃºvida": 5495,
      "HÃ¡": 5496,
      "Ġcontain": 5497,
      "ĠResearch": 5498,
      "Ġvisita": 5499,
      "Ġtela": 5500,
      "Ġenter": 5501,
      "Ġstates": 5502,
      "ecido": 5503,
      "ĠVir": 5504,
      "Ġprovides": 5505,
      "Ġpalavra": 5506,
      "Ġple": 5507,
      "ĠDA": 5508,
      "ĠRa": 5509,
      "Ġweight": 5510,
      "Ġopera": 5511,
      "Ġtas": 5512,
      "rando": 5513,
      "ĠDa": 5514,
      "Ã´nus": 5515,
      "Ġdocumento": 5516,
      "Ġpul": 5517,
      "Ġbater": 5518,
      "Ġaltura": 5519,
      "Ġdocumentos": 5520,
      "bi": 5521,
      "Ġconclus": 5522,
      "Ġadministra": 5523,
      "vida": 5524,
      "Ġdeputado": 5525,
      "etas": 5526,
      "tid": 5527,
      "eiras": 5528,
      "Ġoil": 5529,
      "Ġliving": 5530,
      "Ġorigem": 5531,
      "Ãĵ": 5532,
      "Ġul": 5533,
      "tivity": 5534,
      "Ġeffective": 5535,
      "Ġleva": 5536,
      "Ġservices": 5537,
      "Ġindustry": 5538,
      "Ġlib": 5539,
      "Ġlojas": 5540,
      "Ġanimals": 5541,
      "Ġwon": 5542,
      "Ġcontinua": 5543,
      "ĠFr": 5544,
      "Ġincreased": 5545,
      "Ġrights": 5546,
      "Ġmesa": 5547,
      "Ġevidence": 5548,
      "Ġbasta": 5549,
      "Ġsimplesmente": 5550,
      "Ġsul": 5551,
      "Ġchu": 5552,
      "Ġunidades": 5553,
      "Ġcaminh": 5554,
      "Ġvere": 5555,
      "acia": 5556,
      "Ġadult": 5557,
      "Â»": 5558,
      "Ġpin": 5559,
      "Ġtiv": 5560,
      "Ã¡lia": 5561,
      "Ġavoid": 5562,
      "itoral": 5563,
      "orme": 5564,
      "ĠVol": 5565,
      "Ġcompro": 5566,
      "Ġneeded": 5567,
      "CI": 5568,
      "ĠCul": 5569,
      "Ġpreserv": 5570,
      "Ġtenham": 5571,
      "Ġhold": 5572,
      "clam": 5573,
      "Ġreading": 5574,
      "Ġsmart": 5575,
      "edes": 5576,
      "urch": 5577,
      "Ġtrazer": 5578,
      "hando": 5579,
      "aso": 5580,
      "Ġpros": 5581,
      "esmo": 5582,
      "Ġentire": 5583,
      "Ġequil": 5584,
      "anger": 5585,
      "ĠinstituiÃ§Ã£o": 5586,
      "play": 5587,
      "witter": 5588,
      "tio": 5589,
      "ĠRen": 5590,
      "ibus": 5591,
      "ĠindÃºstria": 5592,
      "Ġcompany": 5593,
      "ipe": 5594,
      "Ġbit": 5595,
      "ĠCri": 5596,
      "ĠDig": 5597,
      "Ġwebsite": 5598,
      "Ġeconomic": 5599,
      "ĠHen": 5600,
      "ĠatuaÃ§Ã£o": 5601,
      "Ġarmazen": 5602,
      "Mu": 5603,
      "Ġlonge": 5604,
      "Ġassociated": 5605,
      "hib": 5606,
      "ĠAnt": 5607,
      "gado": 5608,
      "Ġidea": 5609,
      "ĠfÃŃsica": 5610,
      "UR": 5611,
      "ĠBran": 5612,
      "ĠLat": 5613,
      "Ġstar": 5614,
      "Ġabsol": 5615,
      "Ġpromover": 5616,
      "ĠOrgan": 5617,
      "Ġmoney": 5618,
      "Ġdeixou": 5619,
      "Ġexecu": 5620,
      "Ġpon": 5621,
      "Ġadvog": 5622,
      "Ġposi": 5623,
      "Ġpossuem": 5624,
      "Ġgosta": 5625,
      "Ġflor": 5626,
      "ĠpolÃŃcia": 5627,
      "Ġfire": 5628,
      "ĠAinda": 5629,
      "ĠIr": 5630,
      "Ġtornou": 5631,
      "Ġfonte": 5632,
      "Ġutilizando": 5633,
      "Ġdeterm": 5634,
      "Ġcumpr": 5635,
      "formas": 5636,
      "ficas": 5637,
      "ĠpressÃ£o": 5638,
      "endedor": 5639,
      "Ġparts": 5640,
      "Ġamigo": 5641,
      "Ġheat": 5642,
      "Ġcondition": 5643,
      "Ġpequenos": 5644,
      "edores": 5645,
      "Ġessential": 5646,
      "Ġhappen": 5647,
      "rat": 5648,
      ":||": 5649,
      "Ġpud": 5650,
      "Ġfeitas": 5651,
      "Ġfoco": 5652,
      "ĠMart": 5653,
      "pted": 5654,
      "back": 5655,
      "ests": 5656,
      "ĠprÃ¡ticas": 5657,
      "Ġpsic": 5658,
      "ĠnÃŃveis": 5659,
      "vin": 5660,
      "Ġdiscipl": 5661,
      "Ġspread": 5662,
      "uge": 5663,
      "osso": 5664,
      "Ġfib": 5665,
      "ĠPrograma": 5666,
      "ĠmÃŃnimo": 5667,
      "Ġcannot": 5668,
      "tando": 5669,
      "itÃ¡rio": 5670,
      "ĠConstitu": 5671,
      "ĠUniÃ£o": 5672,
      "Ġstrateg": 5673,
      "ĠNO": 5674,
      "Ġbaixa": 5675,
      "ĠVeja": 5676,
      "ĠpoderÃ£o": 5677,
      "Ġtyp": 5678,
      "Ġvice": 5679,
      "Ãºblica": 5680,
      "Ġtaking": 5681,
      "Ġparticipantes": 5682,
      "Depois": 5683,
      "Ġfish": 5684,
      "hado": 5685,
      "rantes": 5686,
      "ĠEarth": 5687,
      "encia": 5688,
      "ĠopiniÃ£o": 5689,
      "ĠEM": 5690,
      "cido": 5691,
      "Ġconsist": 5692,
      "Ġabertura": 5693,
      "ival": 5694,
      "orro": 5695,
      "Ġvirtual": 5696,
      "Ġdelas": 5697,
      "ĠsituaÃ§Ãµes": 5698,
      "Ġimprove": 5699,
      "ĠAug": 5700,
      "pers": 5701,
      "Ġfevereiro": 5702,
      "Ġvideo": 5703,
      "kk": 5704,
      "Ġpublished": 5705,
      "Ġmundial": 5706,
      "ilos": 5707,
      "Ġtalvez": 5708,
      "ĠLuc": 5709,
      "Ġcasas": 5710,
      "Ġconseguiu": 5711,
      "Ġreduzir": 5712,
      "Ġescolh": 5713,
      "ya": 5714,
      "2019": 5715,
      "Ġservice": 5716,
      "Ġchallen": 5717,
      "Ġabsor": 5718,
      "Ġmind": 5719,
      "ĠSoci": 5720,
      "Ġconcorr": 5721,
      "ĠBas": 5722,
      "Ġrelationship": 5723,
      "Ġsto": 5724,
      "Ġthought": 5725,
      "Ġcustos": 5726,
      "ĠgrÃ¡tis": 5727,
      "Do": 5728,
      "ecting": 5729,
      "Ġpun": 5730,
      "Ġocas": 5731,
      "ĠÃ´": 5732,
      "Ġcalcul": 5733,
      "Ġtroca": 5734,
      "Ġdepress": 5735,
      "Ãªmio": 5736,
      "ecendo": 5737,
      "Ġhalf": 5738,
      "Ġmassa": 5739,
      "vam": 5740,
      "andon": 5741,
      "edas": 5742,
      "ĠviolÃªncia": 5743,
      "endas": 5744,
      "Ġespeciais": 5745,
      "Ġmel": 5746,
      "reto": 5747,
      "Ġbanc": 5748,
      "Ġbanda": 5749,
      "Ġmis": 5750,
      "Ġmix": 5751,
      "arden": 5752,
      "ĠKe": 5753,
      "ĠjurÃŃd": 5754,
      "icidade": 5755,
      "presa": 5756,
      "Ġformato": 5757,
      "Cont": 5758,
      "Ġalmost": 5759,
      "Ġpessoais": 5760,
      "Ġfactors": 5761,
      "Ġreceita": 5762,
      "Ġfuncionamento": 5763,
      "Ġmonths": 5764,
      "Ġsintomas": 5765,
      "Ġsuficiente": 5766,
      "Ġcame": 5767,
      "Ġcra": 5768,
      "ĠPen": 5769,
      "Ġrefl": 5770,
      "Ġcard": 5771,
      "Ġtext": 5772,
      "ĠestarÃ¡": 5773,
      "Ġcargo": 5774,
      "Ġvirtu": 5775,
      "ĠpÃ©": 5776,
      "ĠvÃª": 5777,
      "Ġaler": 5778,
      "ioso": 5779,
      "Sem": 5780,
      "Ġantec": 5781,
      "orias": 5782,
      "ford": 5783,
      "Ġnecessary": 5784,
      "Ġacabou": 5785,
      "aturas": 5786,
      "lege": 5787,
      "Ġmagn": 5788,
      "Cons": 5789,
      "ring": 5790,
      "ĠAndr": 5791,
      "Ġrapidamente": 5792,
      "Ġcomputer": 5793,
      "DF": 5794,
      "eness": 5795,
      "Ġbacter": 5796,
      "Ã¡dio": 5797,
      "Ġdestaque": 5798,
      "ners": 5799,
      "Ġment": 5800,
      "Ġles": 5801,
      "ĠAP": 5802,
      "ĠDom": 5803,
      "Ġatualmente": 5804,
      "ĠEdu": 5805,
      "Ġclean": 5806,
      "77": 5807,
      "ĠOc": 5808,
      "ĠCha": 5809,
      "Ġapart": 5810,
      "ĠrÃ¡pida": 5811,
      "Ġconduc": 5812,
      "Ġinteressante": 5813,
      "posed": 5814,
      "Ġproduce": 5815,
      "Ġfail": 5816,
      "ĠInstagram": 5817,
      "ising": 5818,
      "ĠNatal": 5819,
      "Ġexercis": 5820,
      "teis": 5821,
      "clar": 5822,
      "Ġhumano": 5823,
      "ĠFa": 5824,
      "ĠIndi": 5825,
      "ĠcÃ³digo": 5826,
      "ĠmÃŃ": 5827,
      "porto": 5828,
      "order": 5829,
      "Ġimposs": 5830,
      "SE": 5831,
      "Ġauto": 5832,
      "CA": 5833,
      "Ġgosto": 5834,
      "ÃŃduos": 5835,
      "unt": 5836,
      "Ġpolitical": 5837,
      "gio": 5838,
      "tende": 5839,
      "Ġobjetivos": 5840,
      "Ser": 5841,
      "ĠGrupo": 5842,
      "Ġinvest": 5843,
      "Ġiniciativa": 5844,
      "acks": 5845,
      "____": 5846,
      "Ġatle": 5847,
      "Ġmove": 5848,
      "ST": 5849,
      "tocol": 5850,
      "hada": 5851,
      "Ġaction": 5852,
      "Ġsolid": 5853,
      "ĠestratÃ©gias": 5854,
      "entre": 5855,
      "bers": 5856,
      "Ġlives": 5857,
      "Ġsorte": 5858,
      "ĠIgre": 5859,
      "Ġrequer": 5860,
      "ĠclÃ¡ss": 5861,
      "Ġeasy": 5862,
      "Ġingredi": 5863,
      "edades": 5864,
      "Ġtrabalha": 5865,
      "ĠIsrael": 5866,
      "ĠreferÃªncia": 5867,
      "ank": 5868,
      "Ġthroughout": 5869,
      "IP": 5870,
      "ĠMicrosoft": 5871,
      "Ġstop": 5872,
      "Ġprol": 5873,
      "Ġitens": 5874,
      "lhe": 5875,
      "Ġmig": 5876,
      "ĠEscola": 5877,
      "hood": 5878,
      "Ġdesper": 5879,
      "ĠJu": 5880,
      "Ġarran": 5881,
      "estival": 5882,
      "Ġinvestir": 5883,
      "ĠCenter": 5884,
      "based": 5885,
      "Ġmanagement": 5886,
      "ĠÃ¡r": 5887,
      "Ġemprego": 5888,
      "ĠCP": 5889,
      "ĠPM": 5890,
      "Ġpreen": 5891,
      "pose": 5892,
      "ĠvÃŃtima": 5893,
      "ĠPÃºblico": 5894,
      "Ġbab": 5895,
      "Ġmedia": 5896,
      "oth": 5897,
      "ivas": 5898,
      "Ġcerta": 5899,
      "Ġmunicipal": 5900,
      "Ġindividuals": 5901,
      "bility": 5902,
      "cording": 5903,
      "Ġinvestimentos": 5904,
      "Ġtable": 5905,
      "Ġsun": 5906,
      "Ġacer": 5907,
      "agu": 5908,
      "Ġcooper": 5909,
      "Ġcomercial": 5910,
      "ĠalimentaÃ§Ã£o": 5911,
      "ĠTal": 5912,
      "ÃŃlio": 5913,
      "Ġcircul": 5914,
      "wor": 5915,
      "Ġ500": 5916,
      "Ġcaused": 5917,
      "ery": 5918,
      "ĠCD": 5919,
      "Ġgerenci": 5920,
      "Ġdiret": 5921,
      "ĠsÃ©culo": 5922,
      "Ġimage": 5923,
      "olÃ³gica": 5924,
      "ĠgeraÃ§Ã£o": 5925,
      "Ġliberdade": 5926,
      "ĠbilhÃµes": 5927,
      "Ġitself": 5928,
      "%.": 5929,
      "uno": 5930,
      "otes": 5931,
      "Ġupon": 5932,
      "Ġstudent": 5933,
      "ĠCosta": 5934,
      "ĠCovid": 5935,
      "Ġcuri": 5936,
      "Ġfec": 5937,
      "Ġnovel": 5938,
      "ĠnÃºmeros": 5939,
      "ĠSÃ³": 5940,
      "Ġsede": 5941,
      "Ġprovoc": 5942,
      "gent": 5943,
      "Ġincom": 5944,
      "Ġextre": 5945,
      "ĠDem": 5946,
      "ordin": 5947,
      "Ġlas": 5948,
      "Ġimped": 5949,
      "Ġtemperature": 5950,
      "Ġfas": 5951,
      "ĠmÃ©todo": 5952,
      "ĠBat": 5953,
      "Ġuniver": 5954,
      "Ġparents": 5955,
      "Ġarre": 5956,
      "ugh": 5957,
      "ĠFrancisco": 5958,
      "ĠcafÃ©": 5959,
      "Ġever": 5960,
      "Ġwal": 5961,
      "Ãºl": 5962,
      "olis": 5963,
      "Ġcontou": 5964,
      "Ġsete": 5965,
      "Ġhouve": 5966,
      "tidas": 5967,
      "echan": 5968,
      "Ġnaqu": 5969,
      "ixo": 5970,
      "Ġrelacionamento": 5971,
      "Ġfinanci": 5972,
      "Man": 5973,
      "ĠSch": 5974,
      "ĠinstalaÃ§Ã£o": 5975,
      "Ġnaveg": 5976,
      "BA": 5977,
      "ĠseleÃ§Ã£o": 5978,
      "Ġsix": 5979,
      "ĠMilitar": 5980,
      "ĠFam": 5981,
      "Ġjulg": 5982,
      "Ġeuro": 5983,
      "Ġcontact": 5984,
      "ĠmÃ¡quina": 5985,
      "nibus": 5986,
      "SO": 5987,
      "Ġespera": 5988,
      "Ġrenov": 5989,
      "Ġcauses": 5990,
      "Ġmaintain": 5991,
      "Ġtw": 5992,
      "Ġacho": 5993,
      "Ġplas": 5994,
      "guns": 5995,
      "ĠCast": 5996,
      "ĠJan": 5997,
      "Ġexempl": 5998,
      "idez": 5999,
      "untos": 6000,
      "ĠpÃºblicas": 6001,
      "Ġcozinha": 6002,
      "ĠCopa": 6003,
      "Ġaquela": 6004,
      "ĠAir": 6005,
      "ĠsaÃŃda": 6006,
      "Ġcompras": 6007,
      "Ġtherap": 6008,
      "Ġcm": 6009,
      "illed": 6010,
      "Ġbenefits": 6011,
      "xo": 6012,
      "ĠAN": 6013,
      "Ġcontrib": 6014,
      "ĠDesenvolv": 6015,
      "Ġ196": 6016,
      "ler": 6017,
      "Ġeat": 6018,
      "ict": 6019,
      "Ġrecent": 6020,
      "ĠMarc": 6021,
      "ione": 6022,
      "ĠvitÃ³ria": 6023,
      "Ġsoil": 6024,
      "ĠBras": 6025,
      "Ġlugares": 6026,
      "Ġanalysis": 6027,
      "aged": 6028,
      "ĠcientÃŃ": 6029,
      "Ġreach": 6030,
      "Ġencer": 6031,
      "Ġabri": 6032,
      "ĠcoronavÃŃrus": 6033,
      "Ġtranqu": 6034,
      "Ġposso": 6035,
      "ĠSchool": 6036,
      "Ġhours": 6037,
      "rip": 6038,
      "ĠMc": 6039,
      "ĠHol": 6040,
      "ĠepisÃ³": 6041,
      "lor": 6042,
      "Ġtook": 6043,
      "Ġmente": 6044,
      "Ã§Ã£este": 6045,
      "udio": 6046,
      "ding": 6047,
      "Ġbrit": 6048,
      "Ġimper": 6049,
      "ĠEsp": 6050,
      "Ġbreve": 6051,
      "Ġfortal": 6052,
      "Ġapost": 6053,
      "ultra": 6054,
      "Ġoferta": 6055,
      "Ġlonger": 6056,
      "ĠHor": 6057,
      "aw": 6058,
      "ĠComissÃ£o": 6059,
      "Ġarquivo": 6060,
      "anced": 6061,
      "Ġwww": 6062,
      "ĠLisboa": 6063,
      "TU": 6064,
      "Ġencam": 6065,
      "Ġconceito": 6066,
      "ĠIgreja": 6067,
      "Ġexpand": 6068,
      "tam": 6069,
      "Ġservidores": 6070,
      "02": 6071,
      "Ġincreasing": 6072,
      "Ĥ¬": 6073,
      "ĠJe": 6074,
      "ĠRepÃºblica": 6075,
      "apar": 6076,
      "orado": 6077,
      "Ġveio": 6078,
      "Ġenvironmental": 6079,
      "ĠinglÃªs": 6080,
      "Ã¢ncias": 6081,
      "Ġcober": 6082,
      "Ġign": 6083,
      "Ġquero": 6084,
      "iados": 6085,
      "ĠSanto": 6086,
      "ports": 6087,
      "ĠApÃ³s": 6088,
      "ĠOlive": 6089,
      "dis": 6090,
      "Ġesquer": 6091,
      "Ġang": 6092,
      "ĠState": 6093,
      "Ġago": 6094,
      "ĠpÃ³s": 6095,
      "ĠrelaÃ§Ãµes": 6096,
      "umes": 6097,
      "Ġcompanhia": 6098,
      "Ã¢ncer": 6099,
      "--------": 6100,
      "ĠBu": 6101,
      "Ġhelps": 6102,
      "DB": 6103,
      "Ġdisput": 6104,
      "Ã§am": 6105,
      "Ã³m": 6106,
      "atÃ³ria": 6107,
      "Ġbegan": 6108,
      "Ġutilizado": 6109,
      "Ġideias": 6110,
      "Ġcompletamente": 6111,
      "rad": 6112,
      "xic": 6113,
      "Ġpage": 6114,
      "Ġtemas": 6115,
      "Ġchamada": 6116,
      "quir": 6117,
      "ĠGal": 6118,
      "ĠWal": 6119,
      "Ġmetros": 6120,
      "ĠmunicÃŃpios": 6121,
      "Ġbrin": 6122,
      "hares": 6123,
      "ĠespaÃ§os": 6124,
      "Ġplanos": 6125,
      "apia": 6126,
      "Ġfatores": 6127,
      "Ġdando": 6128,
      "Ġsurpre": 6129,
      "Ġestabel": 6130,
      "cies": 6131,
      "ĠPresidente": 6132,
      "segu": 6133,
      "ðŁ": 6134,
      "inham": 6135,
      "bro": 6136,
      "Ġtraining": 6137,
      "ĠWhile": 6138,
      "Ġultra": 6139,
      "Ġconstant": 6140,
      "ĠDiv": 6141,
      "lobo": 6142,
      "ĠAssociaÃ§Ã£o": 6143,
      "Ã©rios": 6144,
      "Ġpaciente": 6145,
      "SA": 6146,
      "Ġincorpor": 6147,
      "Ġpersonagem": 6148,
      "ension": 6149,
      "Ġouvir": 6150,
      "uir": 6151,
      "Ġdiabetes": 6152,
      "Pl": 6153,
      "Ġbeleza": 6154,
      "mento": 6155,
      "ads": 6156,
      "ĠCris": 6157,
      "Ġespor": 6158,
      "Ġabandon": 6159,
      "itamente": 6160,
      "ĠBom": 6161,
      "ĠUN": 6162,
      "ĠFac": 6163,
      "Ġhi": 6164,
      "uth": 6165,
      "Ġvirus": 6166,
      "Ġacaba": 6167,
      "ĠInternacional": 6168,
      "Ġestrut": 6169,
      "Ġacompanhar": 6170,
      "Ġbranco": 6171,
      "Ġcombate": 6172,
      "Ġintroduc": 6173,
      "Ġbons": 6174,
      "ĠVila": 6175,
      "Ġlimpeza": 6176,
      "Ġameric": 6177,
      "Ġtravel": 6178,
      "Ġpattern": 6179,
      "Ġcomprome": 6180,
      "estrutura": 6181,
      "estes": 6182,
      "Ġgel": 6183,
      "Ġregard": 6184,
      "ĠBlack": 6185,
      "idel": 6186,
      "Ġpalest": 6187,
      "Ġsense": 6188,
      "Ġtorno": 6189,
      "Ġpromov": 6190,
      "Ġstructure": 6191,
      "Ã©ia": 6192,
      "teira": 6193,
      "Ġcarros": 6194,
      "Ġvoz": 6195,
      "ĠCE": 6196,
      "ĠpeÃ§a": 6197,
      "Ġsleep": 6198,
      "Ġensure": 6199,
      "Ġzona": 6200,
      "HO": 6201,
      "Ġdesigned": 6202,
      "ĠTudo": 6203,
      "Ġpersonagens": 6204,
      "ÃŃamos": 6205,
      "Ġartigos": 6206,
      "Ġfoods": 6207,
      "vey": 6208,
      "Ġclose": 6209,
      "Ġaplicativos": 6210,
      "Ġcustom": 6211,
      "ĠHis": 6212,
      "Ġsangue": 6213,
      "Ã¡ticos": 6214,
      "pans": 6215,
      "Ġmatter": 6216,
      "eca": 6217,
      "33": 6218,
      "Ġnomes": 6219,
      "Ã´nico": 6220,
      "vos": 6221,
      "iramente": 6222,
      "ĠMore": 6223,
      "ift": 6224,
      "Ġprevious": 6225,
      "Ġcorte": 6226,
      "ificados": 6227,
      "Ġpoor": 6228,
      "ĠadministraÃ§Ã£o": 6229,
      "Ġton": 6230,
      "ĠMP": 6231,
      "Ġdebate": 6232,
      "Ġinser": 6233,
      "Ġreb": 6234,
      "Ġbuilt": 6235,
      "Ġindustrial": 6236,
      "nov": 6237,
      "toria": 6238,
      "ĠexperiÃªncias": 6239,
      "Ġterms": 6240,
      "ĠSab": 6241,
      "Ġconc": 6242,
      "ĠRel": 6243,
      "Ġlembrar": 6244,
      "ĠAtl": 6245,
      "mit": 6246,
      "sia": 6247,
      "Ġdesafios": 6248,
      "ucle": 6249,
      "Ġprejud": 6250,
      "ĠConfira": 6251,
      "ĠRuss": 6252,
      "usa": 6253,
      "ĠVale": 6254,
      "emble": 6255,
      "Ġsegue": 6256,
      "izaÃ§Ãµes": 6257,
      "Ġdeixe": 6258,
      "ĠCalif": 6259,
      "ĠSenhor": 6260,
      "cles": 6261,
      "ulation": 6262,
      "ĠexercÃŃcio": 6263,
      "vil": 6264,
      "Ġesclar": 6265,
      "ading": 6266,
      "ĠNor": 6267,
      "hold": 6268,
      "Ġtry": 6269,
      "ĠBah": 6270,
      "ĠÃ´nibus": 6271,
      "idge": 6272,
      "Ġ45": 6273,
      "Ġstandard": 6274,
      "portes": 6275,
      "ĠBritish": 6276,
      "Ġproduct": 6277,
      "Ġdificuldades": 6278,
      "ĠAfter": 6279,
      "Ġwriting": 6280,
      "Ġissue": 6281,
      "Ġtrue": 6282,
      "Quem": 6283,
      "Ġaccount": 6284,
      "light": 6285,
      "Ġefica": 6286,
      "Ġexatamente": 6287,
      "Ġhomen": 6288,
      "ĠiP": 6289,
      "rita": 6290,
      "Ġdeep": 6291,
      "ification": 6292,
      "Ġmeaning": 6293,
      "Ġartes": 6294,
      "ĠprogramaÃ§Ã£o": 6295,
      "ĠtendÃªncia": 6296,
      "Ġfogo": 6297,
      "48": 6298,
      "cher": 6299,
      "dura": 6300,
      "ĠcrÃŃ": 6301,
      "Ġguerra": 6302,
      "ĠPesso": 6303,
      "Ã¢ns": 6304,
      "ĠTerra": 6305,
      "Ġmoda": 6306,
      "Ġdemocra": 6307,
      "like": 6308,
      "Ġcade": 6309,
      "Ġroub": 6310,
      "Ġaverage": 6311,
      "Ġpret": 6312,
      "Ġ2007": 6313,
      "TES": 6314,
      "men": 6315,
      "Ġquart": 6316,
      "ĠCruz": 6317,
      "Ġrepl": 6318,
      "Ġfilha": 6319,
      "ĠmÃ¡s": 6320,
      "Ġreti": 6321,
      "Ġmesmos": 6322,
      "Ġleite": 6323,
      "iques": 6324,
      "ĠHoje": 6325,
      "Ġtiveram": 6326,
      "bar": 6327,
      "Ġyet": 6328,
      "Ġvariety": 6329,
      "BC": 6330,
      "Ġcandidato": 6331,
      "ĠfÃ£s": 6332,
      "ĠOliveira": 6333,
      "Ġexcess": 6334,
      "ĠMundial": 6335,
      "Ġfotogra": 6336,
      "guas": 6337,
      "Ġ--": 6338,
      "Ġsomos": 6339,
      "Ġresolver": 6340,
      "ĠsecretÃ¡rio": 6341,
      "pÃ§Ã£o": 6342,
      "Ġhear": 6343,
      "Ġalimentar": 6344,
      "Ġdesf": 6345,
      "ĠIndia": 6346,
      "eixe": 6347,
      "ii": 6348,
      "Ġdispositivo": 6349,
      "elling": 6350,
      "Ġlove": 6351,
      "ĠendereÃ§o": 6352,
      "Ġquadr": 6353,
      "Ġthreat": 6354,
      "ĠrelatÃ³rio": 6355,
      "Ġsolo": 6356,
      "ĠSua": 6357,
      "Ġdemanda": 6358,
      "Ġpretende": 6359,
      "Ġstra": 6360,
      "Ġterceiro": 6361,
      "Ġruas": 6362,
      "36": 6363,
      "over": 6364,
      "ym": 6365,
      "Ġbuscar": 6366,
      "Ġambos": 6367,
      "ĠsaudÃ¡vel": 6368,
      "osco": 6369,
      "Ġhip": 6370,
      "Ġstep": 6371,
      "agre": 6372,
      "zinho": 6373,
      "itation": 6374,
      "Ġuses": 6375,
      "Ġincludes": 6376,
      "Ġaula": 6377,
      "Ġsmo": 6378,
      "essor": 6379,
      "Ġbring": 6380,
      "Ġshare": 6381,
      "Ġriscos": 6382,
      "Ġsexo": 6383,
      "Ġdiscover": 6384,
      "Ã¢nsito": 6385,
      "Ġgreater": 6386,
      "ellow": 6387,
      "Ġresponder": 6388,
      "Ġpequenas": 6389,
      "amo": 6390,
      "ĠMost": 6391,
      "haria": 6392,
      "Ġvelocidade": 6393,
      "Ġrequis": 6394,
      "Ġsuffer": 6395,
      "Ġec": 6396,
      "ĠbÃ´nus": 6397,
      "Ġjuros": 6398,
      "ĠGab": 6399,
      "ĠhorÃ¡rio": 6400,
      "ografia": 6401,
      "Ġcontexto": 6402,
      "room": 6403,
      "undos": 6404,
      "Qual": 6405,
      "iedade": 6406,
      "embre": 6407,
      "olina": 6408,
      "ĠBal": 6409,
      "tras": 6410,
      "Ġaproveitar": 6411,
      "Ġcelebr": 6412,
      "Ġextremamente": 6413,
      "Ġheav": 6414,
      "isti": 6415,
      "Ġinterac": 6416,
      "ĠMarket": 6417,
      "Ġsociety": 6418,
      "But": 6419,
      "Ġcomuns": 6420,
      "aging": 6421,
      "Ġhorm": 6422,
      "ĠPark": 6423,
      "........": 6424,
      "ĠNeste": 6425,
      "rante": 6426,
      "Ġplantas": 6427,
      "ĠmissÃ£o": 6428,
      "Ġled": 6429,
      "oler": 6430,
      "Ġconforto": 6431,
      "Ġfuncional": 6432,
      "OC": 6433,
      "tei": 6434,
      "terna": 6435,
      "Ġeye": 6436,
      "arial": 6437,
      "Ã¢mer": 6438,
      "Ġvive": 6439,
      "lamentar": 6440,
      "Ġpil": 6441,
      "Ġwild": 6442,
      "ĠregiÃµes": 6443,
      "Ġerro": 6444,
      "ÃŃna": 6445,
      "Ġetapa": 6446,
      "iation": 6447,
      "Ġatmos": 6448,
      "Ġdestino": 6449,
      "Ġanswer": 6450,
      "Ġteste": 6451,
      "ĠStar": 6452,
      "ĠPass": 6453,
      "onomia": 6454,
      "Ġato": 6455,
      "Ġreflex": 6456,
      "alu": 6457,
      "ĠfunÃ§Ãµes": 6458,
      "Ġinflam": 6459,
      "ĠQuem": 6460,
      "Ġthing": 6461,
      "Ġinver": 6462,
      "Ġhos": 6463,
      "Ġ300": 6464,
      "LE": 6465,
      "Ġmetal": 6466,
      "ĠmemÃ³ria": 6467,
      "Ġregistro": 6468,
      "lin": 6469,
      "egas": 6470,
      "Ġrecente": 6471,
      "Ġequipes": 6472,
      "Ġscientists": 6473,
      "Ġdescobrir": 6474,
      "Ġespecialistas": 6475,
      "Ġenviar": 6476,
      "ĠOnline": 6477,
      "Ġprograms": 6478,
      "Ġarch": 6479,
      "ĠpolÃŃtico": 6480,
      "Ġpropriet": 6481,
      "Ġdoing": 6482,
      "Ġtranspar": 6483,
      "enced": 6484,
      "ĠsessÃ£o": 6485,
      "my": 6486,
      "cont": 6487,
      "iosa": 6488,
      "Ġdiscu": 6489,
      "Ġidentificar": 6490,
      "Ġdispositivos": 6491,
      "Ġimprensa": 6492,
      "Ġgarante": 6493,
      "ĠYour": 6494,
      "ĠexecuÃ§Ã£o": 6495,
      "Ġcos": 6496,
      "aces": 6497,
      "Ġshown": 6498,
      "Sim": 6499,
      "usÃ£o": 6500,
      "2020": 6501,
      "ality": 6502,
      "Ġtarget": 6503,
      "Ġdoesn": 6504,
      "gria": 6505,
      "Ġaberto": 6506,
      "Ġbehavior": 6507,
      "Ġband": 6508,
      "ĠclÃŃn": 6509,
      "Ġficam": 6510,
      "ĠfÃ³r": 6511,
      "compan": 6512,
      "Ġembal": 6513,
      "Ġgreen": 6514,
      "Ġcomportamento": 6515,
      "Ġverde": 6516,
      "ĠSeu": 6517,
      "Ġencoura": 6518,
      "Ġvic": 6519,
      "issions": 6520,
      "Ġlingu": 6521,
      "Ġapp": 6522,
      "Ġclima": 6523,
      "Ġsubject": 6524,
      "Ġvulner": 6525,
      "Ġclaim": 6526,
      "Ã©re": 6527,
      "Ġliqu": 6528,
      "oga": 6529,
      "ĠVis": 6530,
      "Ġoutside": 6531,
      "Ġmanuf": 6532,
      "Ġformul": 6533,
      "vention": 6534,
      "Ġlonga": 6535,
      "75": 6536,
      "SÃ£o": 6537,
      "Ġinclui": 6538,
      "Ġsustain": 6539,
      "ĠAC": 6540,
      "Ġexplain": 6541,
      "yal": 6542,
      "elha": 6543,
      "Ġinfra": 6544,
      "ĠÃ¢mb": 6545,
      "ĠIl": 6546,
      "Ġqueria": 6547,
      "itÃ¡ria": 6548,
      "Ġchoc": 6549,
      "Ġ2000": 6550,
      "Ġrestaur": 6551,
      "Agora": 6552,
      "ĠIta": 6553,
      "Ġreconhe": 6554,
      "Ġsed": 6555,
      "Ġbill": 6556,
      "Ġlinhas": 6557,
      "Ġbelieve": 6558,
      "ĠdÃ³l": 6559,
      "ĠScience": 6560,
      "Ġretorno": 6561,
      "Ġinvolved": 6562,
      "cado": 6563,
      "osos": 6564,
      "ĠAM": 6565,
      "ĠOper": 6566,
      "38": 6567,
      "Ġpositive": 6568,
      "Ġaus": 6569,
      "Ġnu": 6570,
      "onic": 6571,
      "nas": 6572,
      "pi": 6573,
      "Ã¢nia": 6574,
      "Ġposition": 6575,
      "ĠDireito": 6576,
      "ĠMedic": 6577,
      "Per": 6578,
      "Ġseem": 6579,
      "ager": 6580,
      "Ġexecut": 6581,
      "ÃŃtulos": 6582,
      "plementar": 6583,
      "ĠprisÃ£o": 6584,
      "Ġdeal": 6585,
      "Ġalco": 6586,
      "Ġusa": 6587,
      "Ġmovement": 6588,
      "Ġfornecer": 6589,
      "ĠSeguranÃ§a": 6590,
      "sh": 6591,
      "Ġretir": 6592,
      "Ġpolicy": 6593,
      "uldade": 6594,
      "teriores": 6595,
      "Ġqueda": 6596,
      "ibility": 6597,
      "Ġevents": 6598,
      "Ġgrowing": 6599,
      "ĠportuguÃªs": 6600,
      "Ġvas": 6601,
      "Essa": 6602,
      "Ġsuccessful": 6603,
      "Ġquadro": 6604,
      "Ġtradicional": 6605,
      "VA": 6606,
      "rought": 6607,
      "elizmente": 6608,
      "Ġadqui": 6609,
      "Ġdomin": 6610,
      "ĠhistÃ³rico": 6611,
      "ĠTrabalho": 6612,
      "Ġoito": 6613,
      "ĠSet": 6614,
      "Esse": 6615,
      "Ã¢ne": 6616,
      "Ġplanejamento": 6617,
      "how": 6618,
      "Ġontem": 6619,
      "Ġjuntos": 6620,
      "Ġroupas": 6621,
      "Ġlevant": 6622,
      "Ġwa": 6623,
      "Ġofic": 6624,
      "ĠChristi": 6625,
      "ICA": 6626,
      "ĠLuiz": 6627,
      "ls": 6628,
      "war": 6629,
      "Ġcasal": 6630,
      "Ġconhecida": 6631,
      "Ġigre": 6632,
      "ĠDesenvolvimento": 6633,
      "aqu": 6634,
      "lar": 6635,
      "rados": 6636,
      "Ġperfeito": 6637,
      "Ġprovided": 6638,
      "ĠresponsÃ¡veis": 6639,
      "39": 6640,
      "Que": 6641,
      "Ġsimply": 6642,
      "Ġcomplete": 6643,
      "Ġmethods": 6644,
      "ening": 6645,
      "ĠdistÃ¢ncia": 6646,
      "xi": 6647,
      "Ġcro": 6648,
      "olid": 6649,
      "yes": 6650,
      "Ġbasic": 6651,
      "ĠSub": 6652,
      "Ġrosto": 6653,
      "Ġschools": 6654,
      "Ġmechan": 6655,
      "rie": 6656,
      "Ġbreak": 6657,
      "Ġbor": 6658,
      "Ġadj": 6659,
      "Ġparticularly": 6660,
      "Ġmaravil": 6661,
      "Ġfinanceira": 6662,
      "adoria": 6663,
      "Ġfamiliares": 6664,
      "ĠBrasÃŃlia": 6665,
      "ully": 6666,
      "ĠPorÃ©m": 6667,
      "Ġdesafio": 6668,
      "tery": 6669,
      "Ġmensagens": 6670,
      "ĠBer": 6671,
      "Ġkids": 6672,
      "ĠpublicaÃ§Ã£o": 6673,
      "uk": 6674,
      "ĠMy": 6675,
      "Ġcolon": 6676,
      "Ġsometimes": 6677,
      "Ġquerem": 6678,
      "Ġtratar": 6679,
      "ĠBet": 6680,
      "enses": 6681,
      "Ġprazer": 6682,
      "Ġassistir": 6683,
      "ĠvÃŃrus": 6684,
      "Ġrock": 6685,
      "Ġvariedade": 6686,
      "Ġaluno": 6687,
      "ĠdÃŃ": 6688,
      "izadas": 6689,
      "Ġextern": 6690,
      "Ġdeveloping": 6691,
      "Ġallows": 6692,
      "Ġgratuito": 6693,
      "Ã¡stico": 6694,
      "know": 6695,
      "ĠUr": 6696,
      "Ġprovavelmente": 6697,
      "ocal": 6698,
      "Ġwritten": 6699,
      "cionar": 6700,
      "Ġinternacionais": 6701,
      "Assim": 6702,
      "Co": 6703,
      "ĠcompetiÃ§Ã£o": 6704,
      "formaÃ§Ãµes": 6705,
      "ĠAndroid": 6706,
      "Ġresponse": 6707,
      "Ġarquivos": 6708,
      "Ġdepart": 6709,
      "mal": 6710,
      "Ġlooking": 6711,
      "Ġserious": 6712,
      "Ġconstruir": 6713,
      "ĠDavid": 6714,
      "ĠRib": 6715,
      "ĠNas": 6716,
      "PE": 6717,
      "ĠdecisÃµes": 6718,
      "Ġsaiba": 6719,
      "Ġsuje": 6720,
      "Ġcart": 6721,
      "Ġsomeone": 6722,
      "Ġsafety": 6723,
      "Ġencar": 6724,
      "Ġdecorr": 6725,
      "ogrÃ¡": 6726,
      "Ġautoridades": 6727,
      "ories": 6728,
      "heÃ§a": 6729,
      "Ã¢nico": 6730,
      "Ġfamil": 6731,
      "ĠoperaÃ§Ãµes": 6732,
      "lands": 6733,
      "Ġelectric": 6734,
      "Ġnaturais": 6735,
      "Ġreported": 6736,
      "Ġemploy": 6737,
      "31": 6738,
      "cing": 6739,
      "Ġdaily": 6740,
      "ĠMen": 6741,
      "Ġconsiderado": 6742,
      "ĠAtÃ©": 6743,
      "aving": 6744,
      "Ġsinais": 6745,
      "ĠCity": 6746,
      "Ġjan": 6747,
      "ĠtrÃ¡s": 6748,
      "Ġpartido": 6749,
      "And": 6750,
      "Ġregime": 6751,
      "Ġculture": 6752,
      "ĠcÃ¢ncer": 6753,
      "Ġconex": 6754,
      "ejo": 6755,
      "34": 6756,
      "enho": 6757,
      "Ġproteger": 6758,
      "osas": 6759,
      "Ġclasse": 6760,
      "Ġpraia": 6761,
      "ashington": 6762,
      "95": 6763,
      "Ġdado": 6764,
      "Ã§Ãº": 6765,
      "ĠTex": 6766,
      "Ġdestin": 6767,
      "ĠdisposiÃ§Ã£o": 6768,
      "Ġouro": 6769,
      "Ġdeveria": 6770,
      "hei": 6771,
      "Ġfront": 6772,
      "Ġcresc": 6773,
      "ĠAlexand": 6774,
      "Ġrevista": 6775,
      "ĠST": 6776,
      "Ġsonho": 6777,
      "cal": 6778,
      "Ġinspir": 6779,
      "Ġgetting": 6780,
      "Ġsearch": 6781,
      "Ġfui": 6782,
      "ĠInt": 6783,
      "Ob": 6784,
      "ĠAqui": 6785,
      "Ġexpans": 6786,
      "cara": 6787,
      "Ġreclam": 6788,
      "Ġdamage": 6789,
      "Ainda": 6790,
      "Ġdorm": 6791,
      "ĠCN": 6792,
      "Ġnegoci": 6793,
      "Ġrefle": 6794,
      "Ġsupply": 6795,
      "ĠexposiÃ§Ã£o": 6796,
      "Ġord": 6797,
      "Ġveja": 6798,
      "ĠCamp": 6799,
      "Ġeuros": 6800,
      "Ġcancel": 6801,
      "Ġpoliciais": 6802,
      "Ġnote": 6803,
      "tualmente": 6804,
      "Ġconect": 6805,
      "ĠDra": 6806,
      "Ġbeh": 6807,
      "ĠÃºtil": 6808,
      "%,": 6809,
      "http": 6810,
      "Ġvot": 6811,
      "Ġvender": 6812,
      "ĠÃ³tima": 6813,
      "ĠprÃ³prios": 6814,
      "Ġlate": 6815,
      "ifer": 6816,
      "tagem": 6817,
      "ĠresistÃªncia": 6818,
      "Ġespir": 6819,
      "Leia": 6820,
      "Ġsinal": 6821,
      "Ġconden": 6822,
      "Ġgor": 6823,
      "Ġgram": 6824,
      "Ġpedir": 6825,
      "Ġinvestid": 6826,
      "Ã§Ãºcar": 6827,
      "Ġrelax": 6828,
      "Ġpesquisas": 6829,
      "Ġpior": 6830,
      "ĠHel": 6831,
      "ĠhistÃ³rias": 6832,
      "Ġgovernador": 6833,
      "Ãªnio": 6834,
      "He": 6835,
      "ĠorÃ§amento": 6836,
      "Ġstatus": 6837,
      "Ġsources": 6838,
      "ĠPR": 6839,
      "acher": 6840,
      "wing": 6841,
      "Ġotim": 6842,
      "Ġhar": 6843,
      "ĠEg": 6844,
      "Ġinternational": 6845,
      "chas": 6846,
      "Ãļ": 6847,
      "Ġgot": 6848,
      "ĠTor": 6849,
      "Ġconsumidor": 6850,
      "ĠBanco": 6851,
      "where": 6852,
      "ancy": 6853,
      "itiz": 6854,
      "edia": 6855,
      "70": 6856,
      "Ġempr": 6857,
      "ĠEns": 6858,
      "cop": 6859,
      "ÃŃdos": 6860,
      "term": 6861,
      "Ġesperar": 6862,
      "Ġpropriedade": 6863,
      "radas": 6864,
      "tagon": 6865,
      "ĠÂ«": 6866,
      "Ġdificuldade": 6867,
      "ĠBahia": 6868,
      "ming": 6869,
      "bas": 6870,
      "cam": 6871,
      "ĠUse": 6872,
      "ĠGovern": 6873,
      "ĠAustral": 6874,
      "iada": 6875,
      "ĠDay": 6876,
      "ĠRua": 6877,
      "ĠFut": 6878,
      "ĠNÃ³s": 6879,
      "Ġprevis": 6880,
      "Ġfeitos": 6881,
      "aduaÃ§Ã£o": 6882,
      "apa": 6883,
      "Ġinside": 6884,
      "Ġenfrent": 6885,
      "nÃ£o": 6886,
      "Ġmam": 6887,
      "Ġbad": 6888,
      "Ġestadual": 6889,
      "presidente": 6890,
      "Ġforms": 6891,
      "Ġembar": 6892,
      "ĠPode": 6893,
      "ĠAfric": 6894,
      "Ġcinema": 6895,
      "IG": 6896,
      "Ġtrou": 6897,
      "ĠInternational": 6898,
      "Ġcumpri": 6899,
      "ĠrecuperaÃ§Ã£o": 6900,
      "inhar": 6901,
      "Ãºr": 6902,
      "Ġadvers": 6903,
      "Ġmadeira": 6904,
      "ĠbotÃ£o": 6905,
      "ensive": 6906,
      "duca": 6907,
      "Ġnumbers": 6908,
      "ĠalteraÃ§Ãµes": 6909,
      "App": 6910,
      "Ġnetwork": 6911,
      "ulgar": 6912,
      "dition": 6913,
      "Ġ2006": 6914,
      "78": 6915,
      "Ġintu": 6916,
      "Ġidos": 6917,
      "Ġprecisar": 6918,
      "ĠMany": 6919,
      "ĠcÃ¢mer": 6920,
      "Ġcompromisso": 6921,
      "teiro": 6922,
      "ĠTom": 6923,
      "Ins": 6924,
      "Ġlevou": 6925,
      "ĠPrim": 6926,
      "Ġtecnologias": 6927,
      "tory": 6928,
      "Ġideas": 6929,
      "roup": 6930,
      "Ġacidente": 6931,
      "Ġrespond": 6932,
      "Ġchances": 6933,
      "ounda": 6934,
      "ĠpossÃŃveis": 6935,
      "Ġsecurity": 6936,
      "ĠVic": 6937,
      "Ġproduced": 6938,
      "ĠPs": 6939,
      "Ġminhas": 6940,
      "Ġurb": 6941,
      "Ġvantagens": 6942,
      "IO": 6943,
      "ĠterÃ£o": 6944,
      "ÃŃngua": 6945,
      "ĠDu": 6946,
      "Ġagre": 6947,
      "Ġforce": 6948,
      "Ġprimary": 6949,
      "Ġsabor": 6950,
      "ĠmÃ©dicos": 6951,
      "Ġfizeram": 6952,
      "Ġ*": 6953,
      "ĠCur": 6954,
      "Ġsafe": 6955,
      "Ġgarantia": 6956,
      "ĠespÃ©cie": 6957,
      "redo": 6958,
      "ĠPRO": 6959,
      "estar": 6960,
      "Ġconcurso": 6961,
      "Ã¡logo": 6962,
      "ĠRegional": 6963,
      "Ġcenter": 6964,
      "Ġslow": 6965,
      "Ġdiseases": 6966,
      "Ġelimin": 6967,
      "Ġenorme": 6968,
      "Ġcommunities": 6969,
      "Ã¡cia": 6970,
      "genharia": 6971,
      "Ġcruz": 6972,
      "Ġeg": 6973,
      "Ġeasily": 6974,
      "Ġprotect": 6975,
      "Ġaspectos": 6976,
      "Ġbooks": 6977,
      "ĠÃ¢mbito": 6978,
      "Ġappl": 6979,
      "nes": 6980,
      "Ġhost": 6981,
      "Ġwaste": 6982,
      "xe": 6983,
      "Ġgain": 6984,
      "Ġocorrer": 6985,
      "tifica": 6986,
      "Ġempreg": 6987,
      "Confira": 6988,
      "Ġnormalmente": 6989,
      "Ġadded": 6990,
      "Ġconsumidores": 6991,
      "Ġfinanceiro": 6992,
      "eks": 6993,
      "Ġcomplic": 6994,
      "ishing": 6995,
      "Ġcolaboradores": 6996,
      "ĠMulher": 6997,
      "Ġofficial": 6998,
      "Ġatras": 6999,
      "Ġmoradores": 7000,
      "100": 7001,
      "HA": 7002,
      "py": 7003,
      "Ġspo": 7004,
      "Ġprocedimento": 7005,
      "point": 7006,
      "Ġclin": 7007,
      "Ã³stico": 7008,
      "Ġguard": 7009,
      "Ġambiental": 7010,
      "Ġpath": 7011,
      "Ġacessar": 7012,
      "??": 7013,
      "ĠMinas": 7014,
      "Ġpatient": 7015,
      "Ġtools": 7016,
      "Ġprotocol": 7017,
      "Ġcrist": 7018,
      "ĠCristo": 7019,
      "44": 7020,
      "Ġbag": 7021,
      "Ġwall": 7022,
      "ĠRE": 7023,
      "icultura": 7024,
      "Ġmultiple": 7025,
      "Ġcassino": 7026,
      "Ġfit": 7027,
      "32": 7028,
      "Ġbri": 7029,
      "ella": 7030,
      "Ġdireto": 7031,
      "Ġ2005": 7032,
      "Ġattention": 7033,
      "ficiÃªncia": 7034,
      "bor": 7035,
      "urador": 7036,
      "Ġanaly": 7037,
      "ĠCOVID": 7038,
      "tod": 7039,
      "ĠÃ³leo": 7040,
      "kers": 7041,
      "tada": 7042,
      "ision": 7043,
      "Ġarquit": 7044,
      "Ġteachers": 7045,
      "ĠWilliam": 7046,
      "Ġprojet": 7047,
      "Ġdoctor": 7048,
      "Ġeduca": 7049,
      "pring": 7050,
      "Ġavent": 7051,
      "Ġfras": 7052,
      "uste": 7053,
      "ĠGl": 7054,
      "rary": 7055,
      "Ġcompanies": 7056,
      "IF": 7057,
      "ĠAz": 7058,
      "igi": 7059,
      "Ġpreso": 7060,
      "pts": 7061,
      "Ġvaz": 7062,
      "ĠPortugu": 7063,
      "ĠÃ³rgÃ£os": 7064,
      "pite": 7065,
      "reet": 7066,
      "Ġwid": 7067,
      "Ġconced": 7068,
      "Ġrelacionados": 7069,
      "Ġmess": 7070,
      "ĠEstadual": 7071,
      "Ġhumans": 7072,
      "Ġoce": 7073,
      "iotec": 7074,
      "Ġinformou": 7075,
      "ĠEuropean": 7076,
      "ju": 7077,
      "Ġtaxas": 7078,
      "ĠlÃŃqu": 7079,
      "ecause": 7080,
      "ĠIP": 7081,
      "ĠFaz": 7082,
      "Ġescon": 7083,
      "ĠVen": 7084,
      "Ġdirectly": 7085,
      "Foi": 7086,
      "ative": 7087,
      "Ġreview": 7088,
      "Ġreturn": 7089,
      "ĠpÃ©s": 7090,
      "ani": 7091,
      "Ġearth": 7092,
      "asons": 7093,
      "Ġcomida": 7094,
      "imas": 7095,
      "ĠCaso": 7096,
      "ĠincrÃŃvel": 7097,
      "Ġrural": 7098,
      "ĠMA": 7099,
      "Ġalu": 7100,
      "Ġusados": 7101,
      "Ġcross": 7102,
      "Ġsuppl": 7103,
      "come": 7104,
      "iÃªncias": 7105,
      "ĠCultura": 7106,
      "Ġtum": 7107,
      "tros": 7108,
      "iat": 7109,
      "Ġaim": 7110,
      "Ã¢nica": 7111,
      "Ġrealizadas": 7112,
      "ĠArt": 7113,
      "Ġaquilo": 7114,
      "Ġjeito": 7115,
      "cad": 7116,
      "Ġcirurg": 7117,
      "ĠLula": 7118,
      "Ġquite": 7119,
      "Ġcarta": 7120,
      "Pol": 7121,
      "Ġcomand": 7122,
      "ĠON": 7123,
      "Ġgerar": 7124,
      "Ġgenerally": 7125,
      "Ġquickly": 7126,
      "Durante": 7127,
      "Ġmilhares": 7128,
      "ĠpromoÃ§Ã£o": 7129,
      "Ã§ado": 7130,
      "ĠData": 7131,
      "Ġdifference": 7132,
      "can": 7133,
      "Ġcai": 7134,
      "alizada": 7135,
      "Isso": 7136,
      "ĠAct": 7137,
      "ĠGlobo": 7138,
      "Ġflux": 7139,
      "Ġplanta": 7140,
      "Ġpublicado": 7141,
      "ĠTwitter": 7142,
      "Ġenjo": 7143,
      "ĠnotÃŃcia": 7144,
      "ÃŃstico": 7145,
      "ĠcondiÃ§Ã£o": 7146,
      "ĠStud": 7147,
      "Ġtraditional": 7148,
      "Ġviu": 7149,
      "ificada": 7150,
      "dice": 7151,
      "Ġinten": 7152,
      "Ġcriado": 7153,
      "Ġinfec": 7154,
      "Ġfalou": 7155,
      "ADE": 7156,
      "Ġaper": 7157,
      "mat": 7158,
      "Ġparlamentar": 7159,
      "ĠEspecial": 7160,
      "55": 7161,
      "cra": 7162,
      "Ġmeios": 7163,
      "Ġeleg": 7164,
      "och": 7165,
      "ĠWashington": 7166,
      "cionamento": 7167,
      "SC": 7168,
      "Ġdry": 7169,
      "Ġpedra": 7170,
      "eum": 7171,
      "isto": 7172,
      "Ġverificar": 7173,
      "criÃ§Ãµes": 7174,
      "!!!": 7175,
      "Ġperceber": 7176,
      "equ": 7177,
      "Ġmad": 7178,
      "Ġexcl": 7179,
      "ficiency": 7180,
      "uraÃ§Ã£o": 7181,
      "One": 7182,
      "ĠfÃ©": 7183,
      "ĠvÃ¡l": 7184,
      "âĢĻ,": 7185,
      "Ġprocurar": 7186,
      "ĠnecessÃ¡ria": 7187,
      "TM": 7188,
      "Ġcou": 7189,
      "Ġquil": 7190,
      "ĠPri": 7191,
      "Ġacel": 7192,
      "Ġequipa": 7193,
      "Ġvacc": 7194,
      "Ġrotina": 7195,
      "Bo": 7196,
      "ĠSur": 7197,
      "Ġfacilmente": 7198,
      "ĠâĢ¢": 7199,
      "Ġerros": 7200,
      "Ġtown": 7201,
      "ĠAmeric": 7202,
      "ĠbenefÃŃcio": 7203,
      "ĠPlay": 7204,
      "ĠDigital": 7205,
      "ĠCr": 7206,
      "pert": 7207,
      "Neste": 7208,
      "Ġnight": 7209,
      "Ġattem": 7210,
      "irÃ£o": 7211,
      "Ġdesejo": 7212,
      "olo": 7213,
      "ĠAcad": 7214,
      "Ġscientific": 7215,
      "ÃĬ": 7216,
      "Ġexterior": 7217,
      "ĠLim": 7218,
      "Ġadditional": 7219,
      "Ġviagens": 7220,
      "Ġsuspens": 7221,
      "icl": 7222,
      "ologies": 7223,
      "Ġsmartph": 7224,
      "Ġtub": 7225,
      "Ã¡cio": 7226,
      "Ġwarm": 7227,
      "eiÃ§Ã£o": 7228,
      "Ġiniciar": 7229,
      "Ġencaminh": 7230,
      "ivamente": 7231,
      "Ġafast": 7232,
      "Ġtakes": 7233,
      "Ġpergunta": 7234,
      "Ġanunciou": 7235,
      "ĠMelh": 7236,
      "ching": 7237,
      "Ġdestaca": 7238,
      "Ġmonth": 7239,
      "urado": 7240,
      "Ġagentes": 7241,
      "Jo": 7242,
      "Ġdrug": 7243,
      "Ġdesconto": 7244,
      "ĠquÃŃm": 7245,
      "haps": 7246,
      "Ġcommit": 7247,
      "Af": 7248,
      "rias": 7249,
      "Ġseries": 7250,
      "Ġconversa": 7251,
      "Ġfilm": 7252,
      "Ġcorrect": 7253,
      "ĠconteÃºdos": 7254,
      "ader": 7255,
      "Ġpronto": 7256,
      "Ġcandidatos": 7257,
      "eding": 7258,
      "Ġesteve": 7259,
      "Ġlack": 7260,
      "ĠPÃºblica": 7261,
      "ĠFernando": 7262,
      "Ġitem": 7263,
      "ĠPortanto": 7264,
      "Ġestablished": 7265,
      "ÃŃdio": 7266,
      "Ġcarreg": 7267,
      "Ġexplicou": 7268,
      "ĠTecn": 7269,
      "Ġaer": 7270,
      "Ġinvol": 7271,
      "Ġsegmento": 7272,
      "ĠnecessÃ¡rios": 7273,
      "ociation": 7274,
      "Hoje": 7275,
      "Ġrein": 7276,
      "Ġblock": 7277,
      "Ġdetermine": 7278,
      "rosso": 7279,
      "Ġajust": 7280,
      "Ġincluded": 7281,
      "Ġlinks": 7282,
      "Ġact": 7283,
      "Ġinfection": 7284,
      "ĠdistribuiÃ§Ã£o": 7285,
      "Ġpaz": 7286,
      "Ġinstead": 7287,
      "qÃ¼": 7288,
      "Ġmascul": 7289,
      "Ġequipamento": 7290,
      "vem": 7291,
      "Ġsat": 7292,
      "ĠBa": 7293,
      "ĠLib": 7294,
      "Ġescrever": 7295,
      "Tod": 7296,
      "idro": 7297,
      "cept": 7298,
      "ĠBit": 7299,
      "Ġnumer": 7300,
      "ĠParis": 7301,
      "Ġpassando": 7302,
      "Ġdeixando": 7303,
      "Ġod": 7304,
      "Ġapos": 7305,
      "Ġpractic": 7306,
      "Ġtinham": 7307,
      "Ġnovidades": 7308,
      "ĠBrasileiro": 7309,
      "Ġadapt": 7310,
      "Ġconfort": 7311,
      "ĠPublic": 7312,
      "Ġprome": 7313,
      "Ġderro": 7314,
      "ĠHotel": 7315,
      "Ġconfr": 7316,
      "Ġataque": 7317,
      "ĠinvestigaÃ§Ã£o": 7318,
      "Ġfique": 7319,
      "ĠAle": 7320,
      "Ġreserva": 7321,
      "Ġtiss": 7322,
      "ĠPoder": 7323,
      "ĠLou": 7324,
      "Ġmotivos": 7325,
      "Ġintell": 7326,
      "46": 7327,
      "Tem": 7328,
      "Ġmovimentos": 7329,
      "ĠEnerg": 7330,
      "ĠLet": 7331,
      "ĠEconom": 7332,
      "ĠSistema": 7333,
      "ĠJer": 7334,
      "ounts": 7335,
      "Ġcompared": 7336,
      "Ġcrit": 7337,
      "aixon": 7338,
      "Ġvisitar": 7339,
      "Ġchegada": 7340,
      "Ġdrogas": 7341,
      "49": 7342,
      "ĠimÃ³vel": 7343,
      "berg": 7344,
      "ĠGuar": 7345,
      "ÃŃdas": 7346,
      "Ġfundament": 7347,
      "Ġcausar": 7348,
      "RAN": 7349,
      "Ġvantagem": 7350,
      "ending": 7351,
      "Ġdose": 7352,
      "itaÃ§Ãµes": 7353,
      "Ġprovas": 7354,
      "ales": 7355,
      "atural": 7356,
      "Ġrever": 7357,
      "Ġganha": 7358,
      "Ġcomerciais": 7359,
      "Ġ>": 7360,
      "ĠPT": 7361,
      "Ġnation": 7362,
      "Ġanivers": 7363,
      "Ġacum": 7364,
      "Ġabra": 7365,
      "Ġcarne": 7366,
      "Ġgarant": 7367,
      "Ġeditor": 7368,
      "ĠGestÃ£o": 7369,
      "Ġperguntas": 7370,
      "arily": 7371,
      "Ġgir": 7372,
      "ĠWhats": 7373,
      "ev": 7374,
      "Ġcarre": 7375,
      "Ġrecentemente": 7376,
      "Ġfirm": 7377,
      "nam": 7378,
      "cionado": 7379,
      "...]": 7380,
      "pende": 7381,
      "500": 7382,
      "Ġespan": 7383,
      "Ġhighly": 7384,
      "ĠInstitute": 7385,
      "Ġrit": 7386,
      "ĠalcanÃ§ar": 7387,
      "Ġcarga": 7388,
      "ĠdecoraÃ§Ã£o": 7389,
      "ĠdÃ©cada": 7390,
      "ĠÃ¡rv": 7391,
      "Ġpet": 7392,
      "Ġabran": 7393,
      "Ġinfl": 7394,
      "Ġstrength": 7395,
      "Ġtestes": 7396,
      "Ġtemperatura": 7397,
      "yp": 7398,
      "inary": 7399,
      "Ġparecer": 7400,
      "Ġpsych": 7401,
      "oph": 7402,
      "Pa": 7403,
      "ground": 7404,
      "emun": 7405,
      "Ġofertas": 7406,
      "Ġeurope": 7407,
      "ĠfÃ©rias": 7408,
      "amar": 7409,
      "Ġescolar": 7410,
      "rench": 7411,
      "Ġplataformas": 7412,
      "ĠesforÃ§o": 7413,
      "alo": 7414,
      "Ġpert": 7415,
      "Ġdigitais": 7416,
      "Ġpropag": 7417,
      "37": 7418,
      "ulado": 7419,
      "Ġenfrentar": 7420,
      "ceis": 7421,
      "Ġworkers": 7422,
      "esis": 7423,
      "ĠcÃ©l": 7424,
      "Ġhands": 7425,
      "Ġlou": 7426,
      "formation": 7427,
      "Ġcrimes": 7428,
      "bum": 7429,
      "Ġcup": 7430,
      "Ġimporta": 7431,
      "Ġroom": 7432,
      "Ġstarted": 7433,
      "Ġpredic": 7434,
      "Ġapplications": 7435,
      "Ã©n": 7436,
      "coin": 7437,
      "Ġindica": 7438,
      "ornal": 7439,
      "ĠevoluÃ§Ã£o": 7440,
      "Ġfoss": 7441,
      "iÃ¡s": 7442,
      "anÃ§o": 7443,
      "Ġprint": 7444,
      "ĠPaÃŃs": 7445,
      "Ġdevices": 7446,
      "Ġpec": 7447,
      "Ġcach": 7448,
      "Ġfamilies": 7449,
      "GO": 7450,
      "Ġleaders": 7451,
      "iquei": 7452,
      "Ab": 7453,
      "iet": 7454,
      "ĠFun": 7455,
      "Ġconfi": 7456,
      "ĠApple": 7457,
      "Ġmaravilhos": 7458,
      "Ġviz": 7459,
      "Ġsea": 7460,
      "Ġgarden": 7461,
      "Ġtornando": 7462,
      "ĠParque": 7463,
      "Ġhumana": 7464,
      "Ġpassagem": 7465,
      "Ġtree": 7466,
      "ĠJud": 7467,
      "urb": 7468,
      "illa": 7469,
      "Ġidentify": 7470,
      "iaÃ§Ãµes": 7471,
      "Ġunique": 7472,
      "ĠNews": 7473,
      "fÃŃ": 7474,
      "olate": 7475,
      "ĠForm": 7476,
      "Ġdieta": 7477,
      "ously": 7478,
      "Ġprobably": 7479,
      "ĠEduardo": 7480,
      "ĠEN": 7481,
      "phere": 7482,
      "GB": 7483,
      "ĠinÃºmer": 7484,
      "ÃŃcul": 7485,
      "Ġproib": 7486,
      "Ġtherefore": 7487,
      "ĠdiscussÃ£o": 7488,
      "ĠmÃ³veis": 7489,
      "Ġestados": 7490,
      "ĠeficiÃªncia": 7491,
      "Or": 7492,
      "ono": 7493,
      "Ġalegria": 7494,
      "Ġcritical": 7495,
      "ĠParan": 7496,
      "Ġfinancial": 7497,
      "ml": 7498,
      "Ġpoints": 7499,
      "ĠpÃ¡ginas": 7500,
      "Ġeficiente": 7501,
      "ferm": 7502,
      "ĠMass": 7503,
      "ĠBus": 7504,
      "ĠprevenÃ§Ã£o": 7505,
      "ĠdinÃ¢m": 7506,
      "Ġexperiment": 7507,
      "ĠbebÃª": 7508,
      "ark": 7509,
      "Ġidentidade": 7510,
      "ĠDaniel": 7511,
      "Ġdeg": 7512,
      "Ġdepos": 7513,
      "omet": 7514,
      "Ġmoto": 7515,
      "ĠExecu": 7516,
      "UT": 7517,
      "ĠPan": 7518,
      "ĠTechn": 7519,
      "Ġrig": 7520,
      "Ġuseful": 7521,
      "Ġstream": 7522,
      "Ġatingir": 7523,
      "Ġnucle": 7524,
      "Ġaposta": 7525,
      "ĠFel": 7526,
      "Ġcrescer": 7527,
      "Ġcontempor": 7528,
      "embleia": 7529,
      "ĠtrÃ¡": 7530,
      "ualmente": 7531,
      "PM": 7532,
      "ĠpolÃŃticos": 7533,
      "ĠDesign": 7534,
      "Ġprofund": 7535,
      "ENT": 7536,
      "47": 7537,
      "ĠfÃŃsico": 7538,
      "iled": 7539,
      "ĠAL": 7540,
      "ĠApesar": 7541,
      "plas": 7542,
      "Ġpassos": 7543,
      "Ġpassage": 7544,
      "Ġmeia": 7545,
      "Sobre": 7546,
      "ĠinovaÃ§Ã£o": 7547,
      "ĠPARA": 7548,
      "ives": 7549,
      "ensÃµes": 7550,
      "ferÃªncia": 7551,
      "Ġposicion": 7552,
      "Ġconstante": 7553,
      "Ġcompartilhar": 7554,
      "ĠAfrica": 7555,
      "Ġactive": 7556,
      "dias": 7557,
      "Ġseason": 7558,
      "ĠInde": 7559,
      "Ġlimited": 7560,
      "Ġnarra": 7561,
      "Ġthus": 7562,
      "Ġminutes": 7563,
      "Ġartista": 7564,
      "Ġespos": 7565,
      "erican": 7566,
      "Ġwind": 7567,
      "Ġartistas": 7568,
      "Ġazul": 7569,
      "Ġprotection": 7570,
      "Apesar": 7571,
      "ĠAlem": 7572,
      "Ã©dia": 7573,
      "Ġapplication": 7574,
      "Ġsugar": 7575,
      "ĠFe": 7576,
      "ulares": 7577,
      "Ġfalando": 7578,
      "Ġganhou": 7579,
      "ĠMel": 7580,
      "Ġnacionais": 7581,
      "ĠorganizaÃ§Ãµes": 7582,
      "Ġimpression": 7583,
      "Ġreforma": 7584,
      "Ġfeet": 7585,
      "Ġtrabalhando": 7586,
      "Ġpopulares": 7587,
      "Ġfeatures": 7588,
      "ĠexistÃªncia": 7589,
      "Ġguia": 7590,
      "Ġlarger": 7591,
      "Ġdescri": 7592,
      "Ġpermitir": 7593,
      "Ġfaixa": 7594,
      "Ġones": 7595,
      "more": 7596,
      "Ġfis": 7597,
      "ĠAv": 7598,
      "ĠBrasileira": 7599,
      "Ġparar": 7600,
      "inger": 7601,
      "Ġespecialista": 7602,
      "Ġproduzir": 7603,
      "Ġprotein": 7604,
      "Ġocorreu": 7605,
      "ĠEqu": 7606,
      "Ġfile": 7607,
      "Ġoferecem": 7608,
      "'re": 7609,
      "Ġinfantil": 7610,
      "Ġzero": 7611,
      "Ġhyd": 7612,
      "Ġentend": 7613,
      "Ġrecol": 7614,
      "Ġmorr": 7615,
      "CC": 7616,
      "ismos": 7617,
      "Ġtowards": 7618,
      "Ġambientes": 7619,
      "Ġparal": 7620,
      "Ġassass": 7621,
      "net": 7622,
      "Ġtermo": 7623,
      "Ġbehind": 7624,
      "Ġlos": 7625,
      "Ġhair": 7626,
      "ĠgÃªn": 7627,
      "Ġfortes": 7628,
      "Ġestad": 7629,
      "ĠHom": 7630,
      "ĠmÃºsicas": 7631,
      "Ġhosped": 7632,
      "98": 7633,
      "log": 7634,
      "Ġevalu": 7635,
      "Ġgoal": 7636,
      "Ġwood": 7637,
      "Ġ32": 7638,
      "Ġlimite": 7639,
      "yond": 7640,
      "Ġbic": 7641,
      "ĠHigh": 7642,
      "eign": 7643,
      "Ġvidas": 7644,
      "Am": 7645,
      "Ġfug": 7646,
      "Ġpaint": 7647,
      "Ġexercise": 7648,
      "Ġboca": 7649,
      "ĠhÃ¡b": 7650,
      "Ġdefinir": 7651,
      "Ġearl": 7652,
      "Ġprocedimentos": 7653,
      "Ġterceira": 7654,
      "hema": 7655,
      "Ġexact": 7656,
      "Ġtrit": 7657,
      "ĠCompan": 7658,
      "Ġtransl": 7659,
      "ĠChrist": 7660,
      "ĠsalÃ¡rio": 7661,
      "ificaÃ§Ãµes": 7662,
      "Ġinfluenci": 7663,
      "ĠPas": 7664,
      "ĠverÃ£o": 7665,
      "Ġmenores": 7666,
      "afa": 7667,
      "ĠSU": 7668,
      "Ġsegura": 7669,
      "Ġinvas": 7670,
      "tigo": 7671,
      "Ġdanos": 7672,
      "ĠCoun": 7673,
      "ĠforÃ§as": 7674,
      "Ġmercados": 7675,
      "ĠsensaÃ§Ã£o": 7676,
      "Ġdestacou": 7677,
      "ÃŃbrio": 7678,
      "priate": 7679,
      "Ġtu": 7680,
      "Ġregional": 7681,
      "HE": 7682,
      "Ġtreinamento": 7683,
      "IB": 7684,
      "esper": 7685,
      "Ġthird": 7686,
      "ĠTÃ©cn": 7687,
      "ĠagÃªncia": 7688,
      "PT": 7689,
      "fund": 7690,
      "mm": 7691,
      "Ġreality": 7692,
      "ĠCongresso": 7693,
      "ĠJapan": 7694,
      "Ġabus": 7695,
      "Ġmetade": 7696,
      "ĠgraÃ§as": 7697,
      "Ġfast": 7698,
      "rass": 7699,
      "vest": 7700,
      "Ġ@": 7701,
      "ĠDNA": 7702,
      "aba": 7703,
      "Ġneuro": 7704,
      "cted": 7705,
      "Ġaffect": 7706,
      "Ġaproximadamente": 7707,
      "ĠCu": 7708,
      "ĠÃį": 7709,
      "ounds": 7710,
      "Ġjornada": 7711,
      "Ġwide": 7712,
      "rugs": 7713,
      "Ġpresid": 7714,
      "Ġhabilidades": 7715,
      "Ġuniverso": 7716,
      "iant": 7717,
      "Ġpisc": 7718,
      "Ġ36": 7719,
      "aixas": 7720,
      "ields": 7721,
      "Ġbola": 7722,
      "Ġgrave": 7723,
      "fin": 7724,
      "aga": 7725,
      "water": 7726,
      "Ġreco": 7727,
      "ĠRiver": 7728,
      "ornia": 7729,
      "ĠtÃ©cnicos": 7730,
      "ĠlanÃ§ado": 7731,
      "astre": 7732,
      "Ġlocated": 7733,
      "ĠmÃ¡quinas": 7734,
      "Ġciclo": 7735,
      "Ġportas": 7736,
      "Ġespal": 7737,
      "ĠtransmissÃ£o": 7738,
      "Ġpne": 7739,
      "ecia": 7740,
      "zas": 7741,
      "ĠAqu": 7742,
      "ĠtrÃ¢nsito": 7743,
      "Ġreve": 7744,
      "Ġrespir": 7745,
      "ĠcoleÃ§Ã£o": 7746,
      "hael": 7747,
      "drome": 7748,
      "pet": 7749,
      "outh": 7750,
      "ĠSw": 7751,
      "ĠassistÃªncia": 7752,
      "esses": 7753,
      "Ġthous": 7754,
      "Ġnerv": 7755,
      "Ġprotagon": 7756,
      "ocar": 7757,
      "Ġcamp": 7758,
      "Ġchave": 7759,
      "OD": 7760,
      "Ġmilitares": 7761,
      "Ġattack": 7762,
      "Ġ?": 7763,
      "Ġvenced": 7764,
      "Ol": 7765,
      "ĠMundo": 7766,
      "ĠAna": 7767,
      "ĠMarch": 7768,
      "ĠCuri": 7769,
      "ĠBor": 7770,
      "ĠChild": 7771,
      "Ġrelacionadas": 7772,
      "uba": 7773,
      "ĠexercÃŃcios": 7774,
      "ĠmÃŃdia": 7775,
      "undred": 7776,
      "Ġbeginning": 7777,
      "ĠCount": 7778,
      "ĠvÃŃtimas": 7779,
      "mula": 7780,
      "tom": 7781,
      "ĠEr": 7782,
      "ociaÃ§Ãµes": 7783,
      "Ġalem": 7784,
      "EntÃ£o": 7785,
      "Ġadvanta": 7786,
      "ĠdenÃºn": 7787,
      "ĠDepartment": 7788,
      "Ġapaixon": 7789,
      "âĢĻ.": 7790,
      "Ġsold": 7791,
      "ĠpreocupaÃ§Ã£o": 7792,
      "str": 7793,
      "Ġtests": 7794,
      "Ġstay": 7795,
      "Ġanalisar": 7796,
      "Ġdanger": 7797,
      "ened": 7798,
      "ĠLar": 7799,
      "Ġmob": 7800,
      "ĠcomentÃ¡rio": 7801,
      "Ġsummer": 7802,
      "olar": 7803,
      "Ġacha": 7804,
      "Ġentra": 7805,
      "Ġfoot": 7806,
      "ĠprincÃŃpio": 7807,
      "vador": 7808,
      "orno": 7809,
      "88": 7810,
      "ĠRos": 7811,
      "Ġelse": 7812,
      "gumas": 7813,
      "ĠDoc": 7814,
      "Foto": 7815,
      "ĠPin": 7816,
      "Ġvaga": 7817,
      "Ġcomprov": 7818,
      "ĠRom": 7819,
      "Ġwent": 7820,
      "trar": 7821,
      "Ġpodendo": 7822,
      "otas": 7823,
      "ĠQUE": 7824,
      "brar": 7825,
      "Ġmiss": 7826,
      "ĠFranÃ§a": 7827,
      "ÃŃa": 7828,
      "oundation": 7829,
      "Ġtheory": 7830,
      "uck": 7831,
      "Ġauxiliar": 7832,
      "eroporto": 7833,
      "Ġcold": 7834,
      "Ġflores": 7835,
      "ĠEnsino": 7836,
      "Ġlidar": 7837,
      "Ġimun": 7838,
      "Ġconduz": 7839,
      "ĠfÃ¡br": 7840,
      "Ġcorrup": 7841,
      "Ġeficaz": 7842,
      "Ġdestes": 7843,
      "Ġmusical": 7844,
      "Ġlocalizado": 7845,
      "Ãªu": 7846,
      "ĠBook": 7847,
      "ĠMad": 7848,
      "ĠjustiÃ§a": 7849,
      "Ġplat": 7850,
      "Ã´s": 7851,
      "Ġmoeda": 7852,
      "Ġflag": 7853,
      "Ġbancos": 7854,
      "ronic": 7855,
      "Ġimages": 7856,
      "Ġlost": 7857,
      "Ġestat": 7858,
      "Ã¢ndia": 7859,
      "Ġtou": 7860,
      "ĠMesmo": 7861,
      "Ġ400": 7862,
      "Ġ08": 7863,
      "Ġparceiros": 7864,
      "Ġcreating": 7865,
      "ĠIndian": 7866,
      "Ġeyes": 7867,
      "Ġfontes": 7868,
      "sequ": 7869,
      "ĠClique": 7870,
      "Ġgordura": 7871,
      "ĠaÃ§Ãºcar": 7872,
      "itora": 7873,
      "Ġexame": 7874,
      "Ġveh": 7875,
      "Ġrepresentantes": 7876,
      "Ġpac": 7877,
      "Ġescal": 7878,
      "ĠeconÃ´mica": 7879,
      "Ġwrite": 7880,
      "Ġacol": 7881,
      "Ġleaves": 7882,
      "Ġrequires": 7883,
      "Ġimmedi": 7884,
      "LA": 7885,
      "gÃªncia": 7886,
      "ĠRem": 7887,
      "Ġweeks": 7888,
      "Ã³polis": 7889,
      "ĠSupre": 7890,
      "Ġcobertura": 7891,
      "Ġdil": 7892,
      "Ġvital": 7893,
      "Ġtool": 7894,
      "Ġleading": 7895,
      "ĠFrench": 7896,
      "ĠGon": 7897,
      "encies": 7898,
      "Ġsolution": 7899,
      "Ġbacteria": 7900,
      "ĠAfrican": 7901,
      "By": 7902,
      "Ġbaixar": 7903,
      "vidas": 7904,
      "ĠRoc": 7905,
      "Ġmoral": 7906,
      "Ġlimit": 7907,
      "Ġ150": 7908,
      "Ã³gica": 7909,
      "Ġcontribuir": 7910,
      "Ġdate": 7911,
      "Ġwest": 7912,
      "Ġrates": 7913,
      "aps": 7914,
      "Ġexperim": 7915,
      "Ġantigo": 7916,
      "ĠmÃ©todos": 7917,
      "aking": 7918,
      "ĠmÃ³vel": 7919,
      "Ġtrade": 7920,
      "Ġpassada": 7921,
      "Ġbibl": 7922,
      "Ġtoque": 7923,
      "ĠNesse": 7924,
      "ecida": 7925,
      "Ġobjec": 7926,
      "ĠÃ³timo": 7927,
      "Ġobject": 7928,
      "Ġbenefic": 7929,
      "ÃŃculo": 7930,
      "ĠeleiÃ§Ãµes": 7931,
      "acote": 7932,
      "Ġconcess": 7933,
      "Ġsoon": 7934,
      "Ġsabia": 7935,
      "Ġmolec": 7936,
      "fim": 7937,
      "Ġbreat": 7938,
      "contro": 7939,
      "Ġcertamente": 7940,
      "oming": 7941,
      "ĠJames": 7942,
      "Ġcarry": 7943,
      "Ġadver": 7944,
      "vid": 7945,
      "Ġpad": 7946,
      "Ġconosco": 7947,
      "Ġaparelho": 7948,
      "Ġverdadeiro": 7949,
      "TambÃ©m": 7950,
      "wise": 7951,
      "Ġdign": 7952,
      "hem": 7953,
      "Ġessenciais": 7954,
      "Ġinstall": 7955,
      "Ġlargest": 7956,
      "Ġmilitary": 7957,
      "Ġfantas": 7958,
      "Ġusada": 7959,
      "Ġefet": 7960,
      "ĠdivulgaÃ§Ã£o": 7961,
      "Ġsetores": 7962,
      "Ġtrib": 7963,
      "ague": 7964,
      "Ġrar": 7965,
      "Ġincluem": 7966,
      "inÃ¡rio": 7967,
      "Ġcompl": 7968,
      "ĠcomeÃ§o": 7969,
      "Ġtive": 7970,
      "Ġseems": 7971,
      "Ġgig": 7972,
      "Ġbirth": 7973,
      "ĠLegis": 7974,
      "Ġcontains": 7975,
      "Ġpositivo": 7976,
      "Ġcabelos": 7977,
      "Ġmachine": 7978,
      "Ġpack": 7979,
      "Ġvent": 7980,
      "char": 7981,
      "cito": 7982,
      "Ġampla": 7983,
      "With": 7984,
      "Ġelements": 7985,
      "ativa": 7986,
      "Ġativos": 7987,
      "ĠChin": 7988,
      "Ġvib": 7989,
      "ĠPesqu": 7990,
      "Ġneut": 7991,
      "Ġplaces": 7992,
      "ĠCada": 7993,
      "ĠFirst": 7994,
      "Ġprimeiras": 7995,
      "Ġfight": 7996,
      "ĠinscriÃ§Ã£o": 7997,
      "Ġ2003": 7998,
      "Ġalthough": 7999,
      "Ġpraticamente": 8000,
      "med": 8001,
      "oras": 8002,
      "Ġarmas": 8003,
      "Ġcombust": 8004,
      "Ġprivil": 8005,
      "Ġinferior": 8006,
      "Ġheld": 8007,
      "Ġrelat": 8008,
      "Ġutilizados": 8009,
      "Ġdeterminado": 8010,
      "Ġcookies": 8011,
      "last": 8012,
      "como": 8013,
      "ĠSant": 8014,
      "Ġalmo": 8015,
      "izando": 8016,
      "ĠNos": 8017,
      "cool": 8018,
      "ĠGeneral": 8019,
      "41": 8020,
      "ĠÃºltimas": 8021,
      "Ġpreparar": 8022,
      "IR": 8023,
      "eij": 8024,
      "Ġchefe": 8025,
      "ĠduraÃ§Ã£o": 8026,
      "Ġplaneta": 8027,
      "Ġprocesses": 8028,
      "Ġrestaurante": 8029,
      "Ġrepar": 8030,
      "feitos": 8031,
      "Ġcurto": 8032,
      "ENTO": 8033,
      "ĠNovo": 8034,
      "Ġdemonstr": 8035,
      "ake": 8036,
      "Ġinvent": 8037,
      "Ġrealiza": 8038,
      "Ġferro": 8039,
      "Public": 8040,
      "uries": 8041,
      "xa": 8042,
      "ĠCat": 8043,
      "ĠBarb": 8044,
      "ĠPhil": 8045,
      "ĠterritÃ³rio": 8046,
      "Ġentidades": 8047,
      "Ġtechniques": 8048,
      "Ġaleg": 8049,
      "Ġtold": 8050,
      "Ġprojects": 8051,
      "Ġstri": 8052,
      "irem": 8053,
      "ĠsuperfÃŃ": 8054,
      "ifique": 8055,
      "ĠProjeto": 8056,
      "Ġsqu": 8057,
      "Ġfactor": 8058,
      "Ġcena": 8059,
      "Ġthinking": 8060,
      "odies": 8061,
      "izes": 8062,
      "Ġapply": 8063,
      "ĠReal": 8064,
      "ĠÐ": 8065,
      "Ġtransmiti": 8066,
      "ĠlegislaÃ§Ã£o": 8067,
      "ĠCalifornia": 8068,
      "cida": 8069,
      "Ġdetect": 8070,
      "zos": 8071,
      "Ġeth": 8072,
      "Ġmarido": 8073,
      "unicaÃ§Ã£o": 8074,
      "96": 8075,
      "ĠFrom": 8076,
      "Ġobtain": 8077,
      "Ġavaliar": 8078,
      "Ġeating": 8079,
      "Ġautores": 8080,
      "iosos": 8081,
      "enhora": 8082,
      "isms": 8083,
      "Ġtypically": 8084,
      "Ġmaxim": 8085,
      "Ġimportance": 8086,
      "Ġbanho": 8087,
      "Ġeverything": 8088,
      "ĠfrequÃªncia": 8089,
      "UM": 8090,
      "Ġgave": 8091,
      "ĠRede": 8092,
      "ĠdepÃ³sito": 8093,
      "BS": 8094,
      "Ġspend": 8095,
      "tiba": 8096,
      "Ġlines": 8097,
      "ĠAD": 8098,
      "Ġsection": 8099,
      "ĠconsciÃªncia": 8100,
      "ĠAdministraÃ§Ã£o": 8101,
      "72": 8102,
      "oto": 8103,
      "ivel": 8104,
      "Ġcult": 8105,
      "ĠlocalizaÃ§Ã£o": 8106,
      "Ġredor": 8107,
      "Ġancient": 8108,
      "ĠOur": 8109,
      "forts": 8110,
      "formaÃ§Ã£o": 8111,
      "Ġnormas": 8112,
      "Ġpropostas": 8113,
      "Todos": 8114,
      "ius": 8115,
      "Ġpossibilidades": 8116,
      "Ġ195": 8117,
      "arÃ£o": 8118,
      "alto": 8119,
      "ciÃ³n": 8120,
      "Ġcultiv": 8121,
      "Ġshape": 8122,
      "ĠchÃ¡": 8123,
      "Ġequival": 8124,
      "Ġbrinc": 8125,
      "ĠCampeonato": 8126,
      "Ġspeed": 8127,
      "Ġbens": 8128,
      "ĠStr": 8129,
      "hecimento": 8130,
      "Ġtrees": 8131,
      "Ġmedicamentos": 8132,
      "rogen": 8133,
      "Ġvalues": 8134,
      "Ġchama": 8135,
      "stal": 8136,
      "box": 8137,
      "head": 8138,
      "ĠDon": 8139,
      "ĠMuito": 8140,
      "ĠJune": 8141,
      "Ã©ticos": 8142,
      "present": 8143,
      "Ġmecan": 8144,
      "Ġcere": 8145,
      "Ġdespes": 8146,
      "Ġesquerda": 8147,
      "hone": 8148,
      "Ġ2004": 8149,
      "Ġsituation": 8150,
      "Ġetapas": 8151,
      "ĠRece": 8152,
      "ĠUF": 8153,
      "Ġacredita": 8154,
      "**": 8155,
      "Ġcanais": 8156,
      "Ġcuidar": 8157,
      "IX": 8158,
      "Ġhoriz": 8159,
      "Ġapresentou": 8160,
      "Nos": 8161,
      "Ġteeth": 8162,
      "Ġdecision": 8163,
      "vie": 8164,
      "Ġfins": 8165,
      "Ġinspira": 8166,
      "ĠLiber": 8167,
      "76": 8168,
      "Ġobjetos": 8169,
      "Ġbac": 8170,
      "Ġentrou": 8171,
      "Ġweather": 8172,
      "ĠnecessÃ¡rias": 8173,
      "Ġoffice": 8174,
      "ĠVamos": 8175,
      "Ġguar": 8176,
      "Ġnearly": 8177,
      "Ġpartil": 8178,
      "ĠLima": 8179,
      "Ġsubj": 8180,
      "Ġbarri": 8181,
      "Ġopportunity": 8182,
      "cast": 8183,
      "anal": 8184,
      "Ġcommer": 8185,
      "ĠcomissÃ£o": 8186,
      "Ġrespostas": 8187,
      "Ġconhecimentos": 8188,
      "Ġestudar": 8189,
      "Ġnegative": 8190,
      "ĠDou": 8191,
      "Ġstage": 8192,
      "Ġ[...]": 8193,
      "Ġvencer": 8194,
      "Ġfiscal": 8195,
      "CIA": 8196,
      "aters": 8197,
      "Ġassuntos": 8198,
      "Ġtalk": 8199,
      "Ġclasses": 8200,
      "Ġdrugs": 8201,
      "Ġsurround": 8202,
      "Ġsurviv": 8203,
      "MG": 8204,
      "itu": 8205,
      "Ġservir": 8206,
      "Ġigreja": 8207,
      "Ġcomando": 8208,
      "Ġdispar": 8209,
      "Ġagress": 8210,
      "Ġsonhos": 8211,
      "Ġexpected": 8212,
      "year": 8213,
      "Ġgames": 8214,
      "Ġindependente": 8215,
      "ĠSystem": 8216,
      "Ġrecor": 8217,
      "ĠmantÃ©m": 8218,
      "itions": 8219,
      "Ġhundred": 8220,
      "ĠHere": 8221,
      "irou": 8222,
      "ĠPress": 8223,
      "Ġaparece": 8224,
      "ĠescritÃ³rio": 8225,
      "ĠReino": 8226,
      "han": 8227,
      "ĠAlthough": 8228,
      "aixÃ£o": 8229,
      "ASA": 8230,
      "Be": 8231,
      "ored": 8232,
      "Ġask": 8233,
      "Ġtarefa": 8234,
      "Ġcode": 8235,
      "Ġrules": 8236,
      "Ġterror": 8237,
      "orders": 8238,
      "Ġinfluence": 8239,
      "Ġradio": 8240,
      "ĠaniversÃ¡rio": 8241,
      "Ã§ada": 8242,
      "Ġrealizados": 8243,
      "ĠDesde": 8244,
      "ĠJuly": 8245,
      "Ġquente": 8246,
      "Ġandar": 8247,
      "2012": 8248,
      "Ġfrag": 8249,
      "Ġvisitantes": 8250,
      "ĠÃĢ": 8251,
      "Ġentidade": 8252,
      "Ġsector": 8253,
      "RAS": 8254,
      "icardo": 8255,
      "ĠaprovaÃ§Ã£o": 8256,
      "].": 8257,
      "ĠMach": 8258,
      "ĠespecÃŃfico": 8259,
      "PC": 8260,
      "met": 8261,
      "rict": 8262,
      "ĠmÃ©dica": 8263,
      "Ġpatrim": 8264,
      "ĠGreat": 8265,
      "ĠGil": 8266,
      "Ġmemory": 8267,
      "Ġdecidiu": 8268,
      "Ġquartos": 8269,
      "Ġreform": 8270,
      "ĠCR": 8271,
      "ĠdiagnÃ³stico": 8272,
      "ĠNossa": 8273,
      "Ġdesenvolvido": 8274,
      "ĠatualizaÃ§Ã£o": 8275,
      "Ġjornalista": 8276,
      "americ": 8277,
      "Ġyourself": 8278,
      "Ġperfeita": 8279,
      "Ġwear": 8280,
      "ĠexpressÃ£o": 8281,
      "Ġeconomy": 8282,
      "Ġproperty": 8283,
      "Ġimediatamente": 8284,
      "hi": 8285,
      "ĠDurante": 8286,
      "alizados": 8287,
      "Ġaparecer": 8288,
      "Ġalternativa": 8289,
      "Ġcorrespond": 8290,
      "ĠChristian": 8291,
      "Ġcogn": 8292,
      "rique": 8293,
      "Ġrich": 8294,
      "Ġprec": 8295,
      "Ġdevice": 8296,
      "Ġinteresses": 8297,
      "Cor": 8298,
      "Ġinim": 8299,
      "Ġdupla": 8300,
      "Ġconhece": 8301,
      "ĠsatisfaÃ§Ã£o": 8302,
      "izagem": 8303,
      "ĠAno": 8304,
      "Ġsevere": 8305,
      "Ġartificial": 8306,
      "Ġbalance": 8307,
      "Ġindo": 8308,
      "Ġparede": 8309,
      "Ġatuais": 8310,
      "Ġreceitas": 8311,
      "istics": 8312,
      "Ġfios": 8313,
      "ĠPart": 8314,
      "Ġdipl": 8315,
      "Ġprotest": 8316,
      "bras": 8317,
      "off": 8318,
      "Ġanteriores": 8319,
      "ĠBR": 8320,
      "Ġ48": 8321,
      "Ġlocation": 8322,
      "ĠGeorge": 8323,
      "Ġavi": 8324,
      "inte": 8325,
      "2021": 8326,
      "Ġapresentado": 8327,
      "ĠEducation": 8328,
      "El": 8329,
      "MP": 8330,
      "ÃŃde": 8331,
      "Ġnorth": 8332,
      "tured": 8333,
      "Ġcolher": 8334,
      "tados": 8335,
      "ĠGreen": 8336,
      "rog": 8337,
      "Ġrodo": 8338,
      "Ġtecido": 8339,
      "Ġbarra": 8340,
      "Ġreconhecimento": 8341,
      "Ġenjoy": 8342,
      "rs": 8343,
      "ĠcÃ¡l": 8344,
      "Ġenx": 8345,
      "Ġterren": 8346,
      "Ġhaja": 8347,
      "Ġspeak": 8348,
      "Ġchoose": 8349,
      "Ġabordagem": 8350,
      "ao": 8351,
      "Ġwinter": 8352,
      "Ġuser": 8353,
      "Ġcama": 8354,
      "ĠcÃ¡": 8355,
      "Ġsuger": 8356,
      "Ġplanet": 8357,
      "Ġcosts": 8358,
      "Ġremain": 8359,
      "vision": 8360,
      "Ġrestri": 8361,
      "Ã³i": 8362,
      "ods": 8363,
      "Ġprivate": 8364,
      "Ġantecip": 8365,
      "Ter": 8366,
      "zy": 8367,
      "Ġrecorr": 8368,
      "Ġbox": 8369,
      "Ġbecomes": 8370,
      "Ġresponsible": 8371,
      "Ġtestemun": 8372,
      "Ġaffected": 8373,
      "Ġcaval": 8374,
      "Ġreporta": 8375,
      "Ġemiti": 8376,
      "Ġcampe": 8377,
      "Ġcumprir": 8378,
      "Ġing": 8379,
      "ĠSerra": 8380,
      "Ġconjun": 8381,
      "Ġadequado": 8382,
      "orial": 8383,
      "iance": 8384,
      "Ġencontrado": 8385,
      "Ġmanufact": 8386,
      "Ver": 8387,
      "unes": 8388,
      "Ġgold": 8389,
      "ĠAgÃªncia": 8390,
      "roz": 8391,
      "Ġpron": 8392,
      "duzir": 8393,
      "ĠprÃ³prias": 8394,
      "Ġtarefas": 8395,
      "crib": 8396,
      "Ã³is": 8397,
      "Ġgives": 8398,
      "Ġtan": 8399,
      "Ġdog": 8400,
      "ĠLear": 8401,
      "Ġaumenta": 8402,
      "Ġdan": 8403,
      "Ġborn": 8404,
      "ĠlÃŃngua": 8405,
      "essas": 8406,
      "ĠHy": 8407,
      "ĠInte": 8408,
      "Ġpensamento": 8409,
      "ĠSl": 8410,
      "Ġelen": 8411,
      "pal": 8412,
      "ĠCin": 8413,
      "ott": 8414,
      "ĠClass": 8415,
      "Ġilum": 8416,
      "ĠRoberto": 8417,
      "Ġefforts": 8418,
      "Ġproviding": 8419,
      "Reg": 8420,
      "Ġbrought": 8421,
      "Ġadults": 8422,
      "Ġcoast": 8423,
      "2022": 8424,
      "Ġirreg": 8425,
      "Ġquerer": 8426,
      "Ã¢mbio": 8427,
      "Ã³lica": 8428,
      "Some": 8429,
      "Ġmention": 8430,
      "ĠresoluÃ§Ã£o": 8431,
      "Ġestreia": 8432,
      "ĠEast": 8433,
      "Ġatribu": 8434,
      "Ġrecomenda": 8435,
      "ĠCommun": 8436,
      "Ed": 8437,
      "2018": 8438,
      "Ġsouth": 8439,
      "ÃŃmbol": 8440,
      "Ġfacilitar": 8441,
      "ĠGerais": 8442,
      "ĠÃ³rgÃ£o": 8443,
      "Ġtim": 8444,
      "ĠciÃªncia": 8445,
      "Ġingress": 8446,
      "riel": 8447,
      "care": 8448,
      "Ġanything": 8449,
      "Ġlaws": 8450,
      "hamos": 8451,
      "emy": 8452,
      "Ġwhose": 8453,
      "Ġmostrou": 8454,
      "ĠMarketing": 8455,
      "imar": 8456,
      "ĠTar": 8457,
      "Ġpregn": 8458,
      "ĠHam": 8459,
      "Ġservidor": 8460,
      "gery": 8461,
      "Ġmistura": 8462,
      "kin": 8463,
      "Ġreasons": 8464,
      "These": 8465,
      "ĠPereira": 8466,
      "Ġswe": 8467,
      "Ġdistin": 8468,
      "Ġmission": 8469,
      "Ġking": 8470,
      "Ġchap": 8471,
      "Ġcondicion": 8472,
      "Ġbenefit": 8473,
      "ĠLuÃŃs": 8474,
      "ĠconexÃ£o": 8475,
      "ĠParanÃ¡": 8476,
      "Ġesposa": 8477,
      "ĠBay": 8478,
      "ĠRob": 8479,
      "Ġsimpl": 8480,
      "ĠirÃ£o": 8481,
      "Ġpurpose": 8482,
      "ĠepisÃ³dio": 8483,
      "Col": 8484,
      "Ġsam": 8485,
      "Ġposterior": 8486,
      "ny": 8487,
      "eck": 8488,
      "Ġmanip": 8489,
      "ĠcidadÃ£os": 8490,
      "Ġliquid": 8491,
      "ĠMid": 8492,
      "Ġmineral": 8493,
      "ĠSuperior": 8494,
      "Ġcore": 8495,
      "Ġspir": 8496,
      "Ġprofessional": 8497,
      "Ġcomplet": 8498,
      "Ġgrau": 8499,
      "42": 8500,
      "Ġatua": 8501,
      "Ġtriste": 8502,
      "Ġatac": 8503,
      "Ġtransformar": 8504,
      "jet": 8505,
      "ĠtÃŃtulos": 8506,
      "ĠCel": 8507,
      "ĠCidade": 8508,
      "Ġactual": 8509,
      "Ġresg": 8510,
      "Quer": 8511,
      "Ġmother": 8512,
      "titudes": 8513,
      "Tra": 8514,
      "ĠItal": 8515,
      "Ġweak": 8516,
      "Ġcomunidades": 8517,
      "Ġdepende": 8518,
      "ĠCir": 8519,
      "fera": 8520,
      "Ġmiles": 8521,
      "Ġremember": 8522,
      "Ġfriends": 8523,
      "ederaÃ§Ã£o": 8524,
      "ĠaplicaÃ§Ãµes": 8525,
      "indicato": 8526,
      "tan": 8527,
      "uary": 8528,
      "ĠHouse": 8529,
      "ords": 8530,
      "Ġequipment": 8531,
      "Ġbenefici": 8532,
      "VI": 8533,
      "ĠcarÃ¡": 8534,
      "Ã¢nea": 8535,
      "ĠUnion": 8536,
      "Ġrunning": 8537,
      "LO": 8538,
      "Tube": 8539,
      "Us": 8540,
      "Ġinteiro": 8541,
      "Ġlucro": 8542,
      "ĠWhatsApp": 8543,
      "Ġsobretudo": 8544,
      "olit": 8545,
      "ĠPod": 8546,
      "Ġeffec": 8547,
      "Ġremains": 8548,
      "ĠanÃºncio": 8549,
      "ĠApril": 8550,
      "aj": 8551,
      "Â·": 8552,
      "Ġmm": 8553,
      "Ġfuel": 8554,
      "Ġlands": 8555,
      "ĠPop": 8556,
      "illing": 8557,
      "oster": 8558,
      "ubra": 8559,
      "Ġdiferenci": 8560,
      "Ġconstruction": 8561,
      "?âĢĿ": 8562,
      "olÃ³gicos": 8563,
      "Ġarquitet": 8564,
      "Ġbis": 8565,
      "ĠFal": 8566,
      "Ġconcept": 8567,
      "ĠAndrÃ©": 8568,
      "ught": 8569,
      "xy": 8570,
      "ipais": 8571,
      "Ãºssia": 8572,
      "Ġaberta": 8573,
      "ĠinstalaÃ§Ãµes": 8574,
      "Ġsmaller": 8575,
      "ĠFÃ³r": 8576,
      "Ġtherapy": 8577,
      "Dis": 8578,
      "cu": 8579,
      "Ġproteg": 8580,
      "ĠpadrÃµes": 8581,
      "Ġisn": 8582,
      "abe": 8583,
      "Ġprefeitura": 8584,
      "Ġshop": 8585,
      "Ġcontroll": 8586,
      "Ã±": 8587,
      "Ġfear": 8588,
      "Ġlength": 8589,
      "used": 8590,
      "ranÃ§a": 8591,
      "ĠAnal": 8592,
      "Ġeveryone": 8593,
      "Ġteaching": 8594,
      "85": 8595,
      "life": 8596,
      "Ġut": 8597,
      "Ġdetec": 8598,
      "Ġbio": 8599,
      "Ġappropriate": 8600,
      "Ġtrying": 8601,
      "Me": 8602,
      "ariam": 8603,
      "ĠÃ¡lbum": 8604,
      "ĠemprÃ©s": 8605,
      "ati": 8606,
      "Ãķ": 8607,
      "Ġrecently": 8608,
      "Ġcrucial": 8609,
      "bu": 8610,
      "ÃŃcol": 8611,
      "Ġmaneiras": 8612,
      "Ġcritic": 8613,
      "Ġreceived": 8614,
      "Ġdead": 8615,
      "ĠCre": 8616,
      "Ġdireta": 8617,
      "ĠHistory": 8618,
      "Ġrequisitos": 8619,
      "board": 8620,
      "66": 8621,
      "Ġrecentes": 8622,
      "ĠlÃŃderes": 8623,
      "Ġadolescentes": 8624,
      "Ġdizendo": 8625,
      "ĠAdv": 8626,
      "itiva": 8627,
      "Ġsente": 8628,
      "Ġatriz": 8629,
      "opes": 8630,
      "reek": 8631,
      "ĠdomÃŃnio": 8632,
      "ĠdÃ³lares": 8633,
      "wide": 8634,
      "Ġirrit": 8635,
      "Ġpediu": 8636,
      "Ġaquis": 8637,
      "ĠPlano": 8638,
      "Ġcurrently": 8639,
      "NÃ³s": 8640,
      "Ġcompens": 8641,
      "Ġtesting": 8642,
      "Ġatletas": 8643,
      "BB": 8644,
      "ĠProdut": 8645,
      "Ġurban": 8646,
      "aut": 8647,
      "arg": 8648,
      "Ġfen": 8649,
      "Ġhigi": 8650,
      "ĠHD": 8651,
      "Ġdireita": 8652,
      "ĠinscriÃ§Ãµes": 8653,
      "ĠEngland": 8654,
      "Ġexemplos": 8655,
      "Ġtextos": 8656,
      "Desde": 8657,
      "ĠAugust": 8658,
      "itable": 8659,
      "ĠCatar": 8660,
      "ĠgÃ¡s": 8661,
      "ciples": 8662,
      "2013": 8663,
      "Ġhumor": 8664,
      "ĠHuman": 8665,
      "ĠMig": 8666,
      "Ġdescre": 8667,
      "Ġexamples": 8668,
      "ĠMercado": 8669,
      "Ġcomigo": 8670,
      "Ġlinda": 8671,
      "ĠDevelop": 8672,
      "Antes": 8673,
      "ĠimpressÃ£o": 8674,
      "ĠprincÃŃpios": 8675,
      "Ġauth": 8676,
      "Ġscreen": 8677,
      "Ġlooks": 8678,
      "Ġpermitem": 8679,
      "oxid": 8680,
      "iner": 8681,
      "Ġbatal": 8682,
      ".|": 8683,
      "IZ": 8684,
      "TS": 8685,
      "Ġponta": 8686,
      "Ġcobr": 8687,
      "Ġsabemos": 8688,
      "ĠeconÃ´mico": 8689,
      "ÃŃduo": 8690,
      "iles": 8691,
      "Ġalone": 8692,
      "Ġolder": 8693,
      "Ġ)": 8694,
      "ander": 8695,
      "Ġprecisamos": 8696,
      "Ġsabem": 8697,
      "Ġconsulta": 8698,
      "Ġdisputa": 8699,
      "Ġchocolate": 8700,
      "iou": 8701,
      "rut": 8702,
      "ĠAven": 8703,
      "ĠJac": 8704,
      "ĠJardim": 8705,
      "Ġabre": 8706,
      "Ġframe": 8707,
      "presas": 8708,
      "Ġstories": 8709,
      "Ġjudicial": 8710,
      "ĠlideranÃ§a": 8711,
      "yer": 8712,
      "aling": 8713,
      "ĠintenÃ§Ã£o": 8714,
      "ulta": 8715,
      "Ġrestaurantes": 8716,
      "dent": 8717,
      "Â®": 8718,
      "tober": 8719,
      "Ġattra": 8720,
      "ĠJournal": 8721,
      "tese": 8722,
      "Ġdefend": 8723,
      "Ġdiscrim": 8724,
      "ĠprejuÃŃ": 8725,
      "Ġadvogado": 8726,
      "ĠPost": 8727,
      "Ġobjeto": 8728,
      "Ġajudam": 8729,
      "Ġorganization": 8730,
      "ĠsequÃªncia": 8731,
      "Ġautomaticamente": 8732,
      "Ġarchit": 8733,
      "aa": 8734,
      "Ġori": 8735,
      "Ġdizem": 8736,
      "ĠCle": 8737,
      "ĠUp": 8738,
      "Ġutilizada": 8739,
      "Ġdeleg": 8740,
      "Ġobjects": 8741,
      "Ġbirds": 8742,
      "ĠcontrataÃ§Ã£o": 8743,
      "Ġacrescent": 8744,
      "Ġtentativa": 8745,
      "Ġcompletely": 8746,
      "While": 8747,
      "Ġcontrolar": 8748,
      "Ġcorrida": 8749,
      "Ġsaiu": 8750,
      "Ġreceive": 8751,
      "Ġ75": 8752,
      "Ġdark": 8753,
      "Ġvereador": 8754,
      "pons": 8755,
      "beiros": 8756,
      "Ġintegra": 8757,
      "Ġveter": 8758,
      "ĠCorre": 8759,
      "Ġaplicar": 8760,
      "TER": 8761,
      "Ġice": 8762,
      "organ": 8763,
      "rote": 8764,
      "Ġpreto": 8765,
      "ĠresidÃªncia": 8766,
      "down": 8767,
      "udos": 8768,
      "Ġexames": 8769,
      "ĠpropÃ³sito": 8770,
      "Ġrevela": 8771,
      "Ġchallenges": 8772,
      "iago": 8773,
      "usion": 8774,
      "Ġator": 8775,
      "Ġdescar": 8776,
      "Ġador": 8777,
      "unch": 8778,
      "ĠMend": 8779,
      "ĠRock": 8780,
      "Ġleave": 8781,
      "eff": 8782,
      "Ġpagamentos": 8783,
      "ĠÃ³b": 8784,
      "ING": 8785,
      "Ġrio": 8786,
      "Ġtour": 8787,
      "Ġcriou": 8788,
      "Ġmoment": 8789,
      "Ġfavoritos": 8790,
      "ĠAmazon": 8791,
      "Ãºcle": 8792,
      "wood": 8793,
      "ĠAmericans": 8794,
      "mod": 8795,
      "item": 8796,
      "ĠEven": 8797,
      "ache": 8798,
      "assem": 8799,
      "ĠInc": 8800,
      "Ġcasino": 8801,
      "Ġfinalmente": 8802,
      "Ġgoes": 8803,
      "ĠKar": 8804,
      "Ġoverall": 8805,
      "Ġacabar": 8806,
      "Ġstandards": 8807,
      "Ġvigor": 8808,
      "Ġmetabol": 8809,
      "Ġmiddle": 8810,
      "ĠMet": 8811,
      "ĠesperanÃ§a": 8812,
      "Ġconferir": 8813,
      "tograph": 8814,
      "ĠProte": 8815,
      "Ġlinguagem": 8816,
      "change": 8817,
      "Ġunif": 8818,
      "Ġgenetic": 8819,
      "gentina": 8820,
      "ĠAlemanha": 8821,
      "key": 8822,
      "aterial": 8823,
      "Ġentrev": 8824,
      "berta": 8825,
      "Ġ2002": 8826,
      "fun": 8827,
      "Ġdrama": 8828,
      "Ġretr": 8829,
      "Ġretorn": 8830,
      "istry": 8831,
      "ĠProc": 8832,
      "esc": 8833,
      "cipe": 8834,
      "Ġperdeu": 8835,
      "ĠfarÃ¡": 8836,
      "izou": 8837,
      "ĠFerreira": 8838,
      "ĠequilÃŃbrio": 8839,
      "atur": 8840,
      "Ġdesapar": 8841,
      "ĠWater": 8842,
      "Ġdestro": 8843,
      "Ġdrive": 8844,
      "Ġtradicionais": 8845,
      "tadas": 8846,
      "Ġbate": 8847,
      "Ġalvo": 8848,
      "ĠprevisÃ£o": 8849,
      "ricul": 8850,
      "Ġbolsa": 8851,
      "Ġgostaria": 8852,
      "ĠorientaÃ§Ã£o": 8853,
      "ĠService": 8854,
      "ville": 8855,
      "97": 8856,
      "Ġmember": 8857,
      "igar": 8858,
      "Ġarri": 8859,
      "Ġcriada": 8860,
      "Ġagric": 8861,
      "ĠPresident": 8862,
      "Ġfluxo": 8863,
      "Ġenh": 8864,
      "Ġclub": 8865,
      "Ġconsigo": 8866,
      "ĠÃºteis": 8867,
      "Ġinteresting": 8868,
      "tidi": 8869,
      "ĠSom": 8870,
      "veja": 8871,
      "abel": 8872,
      "Ġsurge": 8873,
      "Ġverdadeira": 8874,
      "ĠintegraÃ§Ã£o": 8875,
      "ĠCounty": 8876,
      "engo": 8877,
      "prim": 8878,
      "Ġpassam": 8879,
      "ĠcÃ©lulas": 8880,
      "Ġpacote": 8881,
      "raf": 8882,
      "Ġvotos": 8883,
      "Ġutil": 8884,
      "ĠCanad": 8885,
      "Ġsteps": 8886,
      "ĠMarcelo": 8887,
      "ĠCour": 8888,
      "Ġdatas": 8889,
      "Ġtes": 8890,
      "taÃ§Ãµes": 8891,
      "tube": 8892,
      "ĠIsto": 8893,
      "ĠAssembleia": 8894,
      "ributed": 8895,
      "Ġtentando": 8896,
      "Ġalerta": 8897,
      "Ġfinanciamento": 8898,
      "ains": 8899,
      "Ġtrem": 8900,
      "ĠTim": 8901,
      "Ġusers": 8902,
      "Ġ33": 8903,
      "ĠAlguns": 8904,
      "Ġcontratos": 8905,
      "ÃŃmp": 8906,
      "istos": 8907,
      "Ġbasis": 8908,
      "ĠdomÃ©s": 8909,
      "Ġversion": 8910,
      "ĠSalvador": 8911,
      "Ġdescribed": 8912,
      "inth": 8913,
      "Ġencom": 8914,
      "elhas": 8915,
      "Ġkit": 8916,
      "Ġmobil": 8917,
      "Ã¡culo": 8918,
      "Ġasked": 8919,
      "ĠMont": 8920,
      "ĠcontÃ©m": 8921,
      "ĠextensÃ£o": 8922,
      "set": 8923,
      "Ġentregar": 8924,
      "Ġsigns": 8925,
      "Ġstrug": 8926,
      "ĠFrance": 8927,
      "Ġmodels": 8928,
      "43": 8929,
      "Ġnothing": 8930,
      "ĠGre": 8931,
      "viamente": 8932,
      "Ġconsiderar": 8933,
      "ĠAccording": 8934,
      "Ġprofessora": 8935,
      "ĠconclusÃ£o": 8936,
      "itadas": 8937,
      "ĠCanada": 8938,
      "Ġrodada": 8939,
      "Ġbillion": 8940,
      "lastname": 8941,
      "izing": 8942,
      "Ġlevando": 8943,
      "ĠdefiniÃ§Ã£o": 8944,
      "far": 8945,
      "Ġ38": 8946,
      "ĠFeb": 8947,
      "Ġperten": 8948,
      "ĠSenado": 8949,
      "Ġritmo": 8950,
      "Ġfort": 8951,
      "Ġefficient": 8952,
      "bel": 8953,
      "ĠPower": 8954,
      "Ġturismo": 8955,
      "Ġexpectativa": 8956,
      "Ġtua": 8957,
      "Ġgratuita": 8958,
      "ĠÃįn": 8959,
      "ĠGold": 8960,
      "ĠGrosso": 8961,
      "Ġdiariamente": 8962,
      "Ġoccurs": 8963,
      "gi": 8964,
      "ĠchÃ£o": 8965,
      "Ġadquir": 8966,
      "Ġvoltou": 8967,
      "Ġensin": 8968,
      "GE": 8969,
      "Ġcolegas": 8970,
      "ptember": 8971,
      "Ġpropriedades": 8972,
      "ĠirmÃ£o": 8973,
      "ĠpÃ³": 8974,
      "ĠdÃ£o": 8975,
      "ĠespÃŃrito": 8976,
      "Ġmuscular": 8977,
      "Ġpowerful": 8978,
      "Ġcitiz": 8979,
      "Ġfatos": 8980,
      "ĠSha": 8981,
      "Ġachar": 8982,
      "Ġdisplay": 8983,
      "Ġcommunication": 8984,
      "Ġdens": 8985,
      "ĠCard": 8986,
      "Ġasseg": 8987,
      "aliza": 8988,
      "Ġcalend": 8989,
      "ĠMos": 8990,
      "Ġsaw": 8991,
      "ĠPortal": 8992,
      "ystem": 8993,
      "Ġemissions": 8994,
      "Ġalma": 8995,
      "ĠRad": 8996,
      "Ġbeyond": 8997,
      "ĠClube": 8998,
      "ĠacadÃªm": 8999,
      "ĠFundaÃ§Ã£o": 9000,
      "Ġchuva": 9001,
      "jar": 9002,
      "nia": 9003,
      "ĠtÃ©r": 9004,
      "Ġblue": 9005,
      "Ġfabricante": 9006,
      "Ġconvidados": 9007,
      "rest": 9008,
      "inais": 9009,
      "Ġmembro": 9010,
      "Ġoral": 9011,
      "ĠComun": 9012,
      "Ġexige": 9013,
      "Ġcadastro": 9014,
      "zinha": 9015,
      "Ġestejam": 9016,
      "Ġaceler": 9017,
      "ÃķES": 9018,
      "quis": 9019,
      "olic": 9020,
      "Ġastr": 9021,
      "endente": 9022,
      "Ġleis": 9023,
      "Ġoptions": 9024,
      "Ġmenu": 9025,
      "Ġileg": 9026,
      "unciar": 9027,
      "Ġcedo": 9028,
      "Ġcomplementar": 9029,
      "Ġposse": 9030,
      "ought": 9031,
      "Ġrefere": 9032,
      "Ġacompanhamento": 9033,
      "ĠocasiÃ£o": 9034,
      "Ġpractices": 9035,
      "naval": 9036,
      "Ġtons": 9037,
      "irs": 9038,
      "ĠBern": 9039,
      "Ġmorreu": 9040,
      "Ġpasseio": 9041,
      "Ġexplicar": 9042,
      "ADO": 9043,
      "ĠVerde": 9044,
      "Ġsymbol": 9045,
      "Ġadultos": 9046,
      "Ġfechar": 9047,
      "Ġterem": 9048,
      "Ġpolicial": 9049,
      "Ġperfect": 9050,
      "Ġlayer": 9051,
      "itamos": 9052,
      "Ġva": 9053,
      "Ġhosp": 9054,
      "stra": 9055,
      "ĠGlobal": 9056,
      "inete": 9057,
      "ured": 9058,
      "Ġcerim": 9059,
      "Ġficaram": 9060,
      "Ġorganismo": 9061,
      "ĠFilho": 9062,
      "ĠDepartamento": 9063,
      "ilson": 9064,
      "essem": 9065,
      "ĠNA": 9066,
      "ĠHIV": 9067,
      "Ġpassaram": 9068,
      "heck": 9069,
      "ĠRodrigo": 9070,
      "Ġinnov": 9071,
      "ountain": 9072,
      "Ġcujo": 9073,
      "Ġcool": 9074,
      "Ġcontac": 9075,
      "Ġcompreender": 9076,
      "Ġmeasures": 9077,
      "Ġdegree": 9078,
      "Ġq": 9079,
      "Ġnove": 9080,
      "Ġproporcionar": 9081,
      "uch": 9082,
      "âĤ¬": 9083,
      "lying": 9084,
      "ĠcomparaÃ§Ã£o": 9085,
      "ĠYouTube": 9086,
      "ĠinteligÃªncia": 9087,
      "ownload": 9088,
      "fit": 9089,
      "Ġesporte": 9090,
      "Ġdiscurso": 9091,
      "ography": 9092,
      "ĠServiÃ§os": 9093,
      "RS": 9094,
      "Ġprice": 9095,
      "ĠAnton": 9096,
      "ĠEsc": 9097,
      "ĠEnquanto": 9098,
      "Ġteacher": 9099,
      "ĠComunicaÃ§Ã£o": 9100,
      "Ġbroad": 9101,
      "iny": 9102,
      "Ġmetas": 9103,
      "ĠTest": 9104,
      "Ġantiga": 9105,
      "Ġdidn": 9106,
      "Ġmotorista": 9107,
      "ĠdÃ©": 9108,
      "Ġactions": 9109,
      "Ġintegral": 9110,
      "Ġopportunities": 9111,
      "cm": 9112,
      "ĠMex": 9113,
      "ĠNow": 9114,
      "Ġmetod": 9115,
      "ĠOver": 9116,
      "Nesta": 9117,
      "ĠMonte": 9118,
      "Ġvisa": 9119,
      "Ġilha": 9120,
      "Ġdecidir": 9121,
      "enty": 9122,
      "ĠRoman": 9123,
      "Ġital": 9124,
      "Ġfundos": 9125,
      "Ġreduced": 9126,
      "Ġprocurando": 9127,
      "Ġoccup": 9128,
      "ĠServiÃ§o": 9129,
      "ĠLegisla": 9130,
      "Ġpedidos": 9131,
      "Ġsono": 9132,
      "Ġpasse": 9133,
      "Ġpontu": 9134,
      "Ġingredientes": 9135,
      "ĠRicardo": 9136,
      "Ġnasceu": 9137,
      "Ġscale": 9138,
      "ĠProfessor": 9139,
      "Ġincentiv": 9140,
      "CN": 9141,
      "ĠMato": 9142,
      "istro": 9143,
      "ĠOri": 9144,
      "ĠOther": 9145,
      "Ġconfig": 9146,
      "Ġproperties": 9147,
      "Ġlocalizada": 9148,
      "Ġfrio": 9149,
      "Ġquaisquer": 9150,
      "Ġenvolve": 9151,
      "mic": 9152,
      "Ġdica": 9153,
      "ĠCA": 9154,
      "Ġdied": 9155,
      "ĠPolÃŃtica": 9156,
      "olÃ³gicas": 9157,
      "Ã³nio": 9158,
      "ĠiPhone": 9159,
      "ĠObs": 9160,
      "ĠJogos": 9161,
      "ĠPeople": 9162,
      "ĠsÃŃmbol": 9163,
      "ĠJew": 9164,
      "Ġincome": 9165,
      "ext": 9166,
      "Ġbloc": 9167,
      "Ġconsidera": 9168,
      "Ġlendo": 9169,
      "ĠVas": 9170,
      "Ġ01": 9171,
      "GU": 9172,
      "Ġinstalar": 9173,
      "Ġexposure": 9174,
      "ĠSta": 9175,
      "oda": 9176,
      "ĠRÃºssia": 9177,
      "ĠChurch": 9178,
      "Ġfacilidade": 9179,
      "Ġlimites": 9180,
      "vamos": 9181,
      "aled": 9182,
      "ĠCÃ³digo": 9183,
      "Ġelog": 9184,
      "Ġrealizou": 9185,
      "Ġeducational": 9186,
      "ĠgÃªnero": 9187,
      "roll": 9188,
      "igence": 9189,
      "ĠBon": 9190,
      "endedores": 9191,
      "ĠtÃ¡": 9192,
      "ĠIII": 9193,
      "Ġrise": 9194,
      "IDADE": 9195,
      "Ġcategorias": 9196,
      "Ġaguard": 9197,
      "ĠColl": 9198,
      "ĠEsper": 9199,
      "Ġlembra": 9200,
      "Ġroupa": 9201,
      "VE": 9202,
      "ario": 9203,
      "ĠCollege": 9204,
      "Ġinvestidores": 9205,
      "Ġpatro": 9206,
      "Ġvidro": 9207,
      "ĠEmbora": 9208,
      "Ġpasta": 9209,
      "ams": 9210,
      "Ġteu": 9211,
      "ĠEspanha": 9212,
      "valho": 9213,
      "Ġadicionar": 9214,
      "Ġreligious": 9215,
      "ĠdeclaraÃ§Ã£o": 9216,
      "Ġcombin": 9217,
      "Ġapoiar": 9218,
      "Ġcommonly": 9219,
      "Ġadquirir": 9220,
      "Ġsap": 9221,
      "ĠDen": 9222,
      "Ġportal": 9223,
      "Ġgrade": 9224,
      "All": 9225,
      "abilities": 9226,
      "ĠConstituiÃ§Ã£o": 9227,
      "TC": 9228,
      "ĠStor": 9229,
      "ova": 9230,
      "Ġnamed": 9231,
      "rais": 9232,
      "ÃŃram": 9233,
      "ĠLin": 9234,
      "ĠUK": 9235,
      "Ġultrapass": 9236,
      "incip": 9237,
      "emin": 9238,
      "Ġtomada": 9239,
      "Ġcapacity": 9240,
      "Ġexpert": 9241,
      "Ġmostram": 9242,
      "tizaÃ§Ã£o": 9243,
      "ĠespecÃŃficos": 9244,
      "Ġcomponentes": 9245,
      "Ġfresh": 9246,
      "ipo": 9247,
      "edom": 9248,
      "Ġvc": 9249,
      "tero": 9250,
      "Ġdescobri": 9251,
      "Ġafinal": 9252,
      "ĠQuer": 9253,
      "Ġoffers": 9254,
      "bia": 9255,
      "uits": 9256,
      "Ġcomposto": 9257,
      "ĠVida": 9258,
      "Ġfair": 9259,
      "Ġexisting": 9260,
      "Ġfollowed": 9261,
      "ĠRegiÃ£o": 9262,
      "ĠtendÃªncias": 9263,
      "ĠconfortÃ¡vel": 9264,
      "PP": 9265,
      "ĠMary": 9266,
      "Ġpede": 9267,
      "Ã©rito": 9268,
      "Ġvermelho": 9269,
      "TRA": 9270,
      "Ġescrita": 9271,
      "Ġindicado": 9272,
      "ĠtelevisÃ£o": 9273,
[...]
